<pad>	0
<unk>	0
[CLS]	0
[SEP]	0
[SPK1]	0
[SPK2]	0
<mask>	0
、	-2.90756
。	-2.95899
の	-4.05071
は	-4.35688
が	-4.45073
で	-4.64265
▁	-4.65219
を	-4.72198
に	-4.76065
?	-4.81289
と	-4.8241
も	-5.03854
)	-5.2106
」	-5.21745
「	-5.27249
(	-5.31967
です	-5.34563
から	-5.58953
.	-5.59683
や	-5.83127
/	-5.86349
・	-5.89607
し	-5.94478
か	-5.9653
1	-6.04497
でも	-6.12772
2	-6.20236
して	-6.25125
!	-6.26006
ので	-6.29787
って	-6.34818
その	-6.37701
な	-6.46137
とか	-6.46739
私は	-6.47897
という	-6.56318
なら	-6.57616
する	-6.57697
3	-6.58359
また	-6.62767
など	-6.66283
・・・	-6.72137
ですが	-6.73106
この	-6.73391
...	-6.75145
る	-6.77524
には	-6.79114
て	-6.8022
なので	-6.8669
した	-6.88024
a	-6.9136
,	-6.91825
では	-6.91857
ます	-6.92214
://	-6.95554
ね	-6.98381
のですが	-6.99306
、「	-7.0529
-	-7.05535
お	-7.0797
人	-7.10912
http	-7.11057
と思います	-7.11247
:	-7.11667
よ	-7.13243
でしょうか	-7.13428
い	-7.13532
まで	-7.15275
〜	-7.15893
ました	-7.17474
た	-7.18625
として	-7.18768
4	-7.19677
ら	-7.21498
ですね	-7.21661
私の	-7.24646
ない	-7.26672
のは	-7.26911
5	-7.28865
>	-7.29921
でした	-7.31634
jp	-7.32523
今	-7.32564
ありがとうございました	-7.33128
ありがとうございます	-7.3335
b	-7.34032
e	-7.34955
います	-7.35957
します	-7.3608
り	-7.36211
私が	-7.37577
年	-7.39351
のでしょうか	-7.39954
だけ	-7.40304
。(	-7.4132
自分の	-7.41397
日	-7.4153
だと	-7.41537
もう	-7.4218
s	-7.42633
している	-7.44339
www	-7.4773
ー	-7.47767
10	-7.47882
=	-7.49268
ただ	-7.49585
こと	-7.50629
しました	-7.50744
しかし	-7.51476
いる	-7.51687
私も	-7.51904
ィ	-7.52178
より	-7.53667
ある	-7.54684
m	-7.5538
でしょう	-7.55912
いて	-7.56353
c	-7.58012
ですか	-7.58098
ア	-7.58833
だから	-7.59126
事	-7.59302
になる	-7.60707
なんて	-7.61048
けど	-7.62918
のか	-7.62999
いい	-7.63165
よろしくお願いします	-7.63769
_	-7.64274
ゥ	-7.64632
大	-7.64646
しています	-7.66112
何か	-7.6808
本当に	-7.68214
やはり	-7.69117
もし	-7.69281
時	-7.69344
月	-7.69593
そう	-7.70469
にも	-7.71228
』	-7.7137
について	-7.7146
これは	-7.71495
ス	-7.71948
まだ	-7.73066
イ	-7.73549
何	-7.74423
できる	-7.7526
私	-7.76921
x	-7.77283
pc	-7.77681
時間	-7.78019
よく	-7.78024
回答	-7.78183
だ	-7.78724
ように	-7.78767
6	-7.78854
中	-7.79349
がある	-7.79906
『	-7.79952
あまり	-7.80557
同じ	-7.81221
いた	-7.81828
そして	-7.82634
等	-7.83421
一	-7.83855
つ	-7.84157
ちょっと	-7.84377
とても	-7.85097
物	-7.85103
最近	-7.85386
歳	-7.85398
現在	-7.8551
→	-7.85982
す	-7.86689
質問	-7.87307
ちなみに	-7.87713
ですよね	-7.87776
良い	-7.87837
しか	-7.8786
d	-7.88527
html	-7.8854
7	-7.88574
さん	-7.88816
く	-7.89233
分	-7.89491
ような	-7.8985
円	-7.90177
すると	-7.9019
へ	-7.90309
あと	-7.90526
方	-7.90626
少し	-7.90942
話	-7.91069
そんな	-7.91175
8	-7.91376
20	-7.91723
さ	-7.92392
仕事	-7.93161
url	-7.94218
・・・。	-7.94403
他の	-7.94813
したら	-7.95036
される	-7.95146
ません	-7.95172
教えてください	-7.95447
・・	-7.96209
だと思います	-7.96391
み	-7.98087
とは	-7.98247
もの	-7.98506
30	-7.99442
参考	-7.99696
のです	-8.00178
。>	-8.0041
いました	-8.0043
き	-8.01
された	-8.012
本	-8.01861
万	-8.01873
笑	-8.02083
co	-8.02981
それは	-8.03951
というのは	-8.04255
!!	-8.04627
後	-8.04858
com	-8.04989
今は	-8.05087
自分が	-8.05871
なのですが	-8.06731
があります	-8.06846
ご	-8.07273
ため	-8.07404
時に	-8.07442
彼は	-8.07447
になります	-8.07516
t	-8.07766
”	-8.07879
特に	-8.08068
回	-8.08073
手	-8.08964
n	-8.09042
ウ	-8.0932
だった	-8.09551
そういう	-8.09776
g	-8.10231
ではなく	-8.1062
ください	-8.11058
かな	-8.11176
それを	-8.11267
場合	-8.11321
ず	-8.1153
んです	-8.11753
ラ	-8.11763
ト	-8.12057
見	-8.12301
上	-8.1253
結婚	-8.12834
しない	-8.13688
+	-8.14091
すれば	-8.14237
f	-8.14301
そこで	-8.1439
問題	-8.14406
う	-8.14606
できない	-8.1476
かなり	-8.14834
回答ありがとうございます	-8.14855
車	-8.14954
r	-8.14965
w	-8.15007
h	-8.15153
▁゚	-8.15674
ことを	-8.16109
」「	-8.17576
った	-8.17759
i	-8.17989
ですから	-8.18066
こ	-8.18469
まず	-8.18483
それ	-8.18536
れば	-8.18759
こんな	-8.18857
毎日	-8.18862
どう	-8.19132
名	-8.19288
たら	-8.1937
ことは	-8.19398
そうです	-8.19652
だけで	-8.20543
前	-8.206
9	-8.20742
...。	-8.21395
出	-8.21561
&	-8.21929
者	-8.21957
ほど	-8.22191
いつも	-8.22295
こんにちは	-8.22473
代	-8.23
メール	-8.23251
自分で	-8.2327
数	-8.23345
したい	-8.23448
前に	-8.23519
ですよ	-8.24095
ん	-8.241
の方が	-8.24223
性	-8.2432
水	-8.24344
v	-8.24468
ッ	-8.24479
くらい	-8.24812
もっと	-8.24902
もちろん	-8.25255
になって	-8.26055
リ	-8.26198
コ	-8.26247
"	-8.26268
所	-8.26627
オ	-8.26632
ところ	-8.26696
などの	-8.26959
?」	-8.27103
ル	-8.2767
チ	-8.27979
高	-8.28469
%	-8.28652
例えば	-8.28663
と言う	-8.28684
今まで	-8.28708
k	-8.28829
たい	-8.29212
ク	-8.29773
一度	-8.29905
お願いします	-8.30139
目	-8.30631
である	-8.30697
下	-8.30715
的な	-8.30941
子	-8.31061
カ	-8.31096
なく	-8.31106
確かに	-8.31122
それが	-8.31272
これ	-8.31323
のに	-8.31391
彼の	-8.31823
なのか	-8.31831
やっぱり	-8.31996
があり	-8.32449
への	-8.32724
関係	-8.32978
しても	-8.33263
女性	-8.33451
気	-8.33615
力	-8.33883
なのでしょうか	-8.34308
あなたの	-8.3456
点	-8.34662
マ	-8.34676
いない	-8.34822
ミ	-8.35202
キ	-8.35305
考え	-8.35419
y	-8.35423
なんか	-8.3567
大学	-8.35987
??	-8.36014
用	-8.36031
されている	-8.36581
会社	-8.37139
ま	-8.37176
方が	-8.37187
かもしれません	-8.37214
p	-8.375
万円	-8.37618
されて	-8.37699
あ	-8.38005
子供	-8.38277
ずっと	-8.38357
日本	-8.38379
どんな	-8.39035
金	-8.39079
なぜ	-8.39587
わ	-8.39662
人は	-8.39755
設定	-8.40115
人が	-8.40542
的に	-8.40663
になり	-8.40833
エ	-8.40858
ば	-8.40888
cd	-8.41237
したり	-8.42242
自分	-8.43168
セ	-8.43512
よう	-8.43611
以上	-8.43835
▁゙	-8.43853
思い	-8.43995
であれば	-8.44021
男	-8.44338
アドバイス	-8.44486
ツ	-8.44498
度	-8.46025
生	-8.46032
電話	-8.46205
それとも	-8.4629
先日	-8.46512
なり	-8.46603
をして	-8.46734
タ	-8.46813
のが	-8.46822
それで	-8.46858
全く	-8.46881
情報	-8.47027
と思う	-8.47052
一緒に	-8.47238
勉強	-8.474
んですが	-8.47586
no	-8.48073
何も	-8.48283
あり	-8.48298
相談	-8.48551
ノ	-8.4874
人の	-8.48832
ようです	-8.48892
一番	-8.49009
の場合	-8.49505
心	-8.49717
テ	-8.49908
のような	-8.4992
男性	-8.50161
しまいました	-8.50392
国	-8.51097
ことが	-8.51137
0	-8.51153
100	-8.51616
ナ	-8.51726
あります	-8.51934
があれば	-8.52174
よね	-8.52277
サ	-8.5233
ではない	-8.52439
小	-8.53058
なかった	-8.54285
どうしても	-8.54699
自分は	-8.54717
▁=	-8.54755
法	-8.54796
され	-8.54909
によって	-8.5492
経験	-8.5494
ロ	-8.55006
的	-8.55445
見て	-8.55667
とき	-8.55753
−	-8.55831
フ	-8.56229
になった	-8.56327
め	-8.56458
ている	-8.56566
ニ	-8.5756
してる	-8.57642
女	-8.57665
今の	-8.57706
んだ	-8.57748
出来る	-8.57879
友達	-8.57979
外	-8.58109
行	-8.58109
下さい	-8.58358
すぐに	-8.58387
その後	-8.58461
無	-8.58503
ソフト	-8.58737
人間	-8.59061
すごく	-8.59089
初めて	-8.5929
彼が	-8.59313
15	-8.59338
ド	-8.59437
生活	-8.59501
ne	-8.5952
たり	-8.59758
方法	-8.59766
場合は	-8.59797
のように	-8.59809
としては	-8.59848
と思うのですが	-8.59871
使用	-8.59956
よりも	-8.59997
契約	-8.60479
対応	-8.60502
あなたが	-8.60598
だったら	-8.6076
確認	-8.608
道	-8.61177
む	-8.61401
なかなか	-8.61693
ですので	-8.61741
ながら	-8.61752
サイト	-8.6188
!」	-8.61999
かもしれませんが	-8.62031
以前	-8.6246
のですか	-8.62677
メ	-8.62691
os	-8.62806
1.	-8.62816
はありません	-8.62897
説明	-8.63107
いません	-8.63252
さんの	-8.63362
に対して	-8.63365
元	-8.63659
;	-8.64442
ありません	-8.64627
シ	-8.64813
先	-8.64901
と言われました	-8.65241
きました	-8.65379
状態	-8.65404
dvd	-8.65523
ヤ	-8.65594
]	-8.65732
悪い	-8.658
大変	-8.65955
色	-8.66048
られる	-8.6607
windows	-8.66122
違う	-8.66153
q	-8.66293
ム	-8.6633
12	-8.6651
それに	-8.66559
o	-8.66847
と思い	-8.67012
んで	-8.67164
愛	-8.67166
かも	-8.67341
40	-8.67464
っ	-8.67544
必要	-8.67576
化	-8.67644
気持ち	-8.67675
l	-8.678
をする	-8.67834
などで	-8.67852
言って	-8.68111
それでも	-8.68249
色々	-8.6831
教えて下さい	-8.68384
音	-8.68449
していた	-8.68586
ヶ月	-8.68791
いろいろ	-8.68856
だし	-8.68903
え	-8.69035
つまり	-8.69086
50	-8.69099
結局	-8.69236
家	-8.69318
▁(	-8.6935
体	-8.69367
できません	-8.69394
早く	-8.69586
くれる	-8.69654
三	-8.69716
とりあえず	-8.69764
取り	-8.69819
好き	-8.69998
正直	-8.70033
ちゃんと	-8.70142
なければ	-8.70247
離婚	-8.70298
線	-8.7034
】	-8.70704
ばかり	-8.70792
台	-8.70869
二	-8.71085
事を	-8.71098
ご回答ありがとうございます	-8.71155
モ	-8.71183
と思っています	-8.71399
というか	-8.7147
高校	-8.71591
ならば	-8.71669
しまいます	-8.7178
結構	-8.71804
ok	-8.71811
面	-8.7229
ネ	-8.72434
着	-8.72434
今日	-8.72572
人に	-8.72738
新しい	-8.72803
とも	-8.729
そのまま	-8.72936
内	-8.72973
がない	-8.7298
不	-8.73002
ョ	-8.73041
心配	-8.7325
しまい	-8.73287
きて	-8.73473
j	-8.73476
ソ	-8.7349
ュ	-8.73673
については	-8.74004
口	-8.74149
を見て	-8.74154
と思いますが	-8.74302
普通	-8.74413
ネット	-8.74428
やって	-8.74566
彼	-8.74688
時は	-8.75133
みたいな	-8.75153
レ	-8.75162
病気	-8.75212
購入	-8.753
山	-8.75336
ますが	-8.75455
アー	-8.75519
長	-8.75628
きます	-8.75707
ということ	-8.75846
親	-8.76003
不安	-8.76163
ますか	-8.76353
すみません	-8.76516
できれば	-8.76534
位	-8.76906
くる	-8.76948
普通に	-8.76949
と思って	-8.76971
お金	-8.77027
による	-8.77248
すぐ	-8.77256
ると	-8.77433
場所	-8.7744
彼に	-8.77877
きた	-8.78069
ファイル	-8.78153
行く	-8.78154
[	-8.78212
相手の	-8.7825
系	-8.78417
のも	-8.78434
のであれば	-8.78525
こういう	-8.78659
連絡	-8.78766
文	-8.78869
接続	-8.7904
逆に	-8.79071
考えて	-8.79341
してください	-8.79439
約	-8.79492
いく	-8.79633
ときに	-8.79803
を使って	-8.79913
理解	-8.80055
私に	-8.80091
と言って	-8.80189
恋愛	-8.80216
にして	-8.8036
パソコン	-8.80441
家族	-8.80728
無い	-8.80822
彼女	-8.81049
のみ	-8.81062
理由	-8.8121
別の	-8.81274
付き合って	-8.81548
新	-8.81986
なんですが	-8.82114
事は	-8.82189
直	-8.82253
11	-8.82479
どなたか	-8.82738
言う	-8.82896
なくて	-8.82928
かどうか	-8.83079
聞いて	-8.83367
ン	-8.83496
があった	-8.83754
ゲーム	-8.8412
じゃない	-8.84176
品	-8.84179
感じ	-8.84298
ヘ	-8.84322
よろしくお願いいたします	-8.84414
子供が	-8.84558
ではありません	-8.8478
表	-8.84797
様	-8.84797
カード	-8.85066
ましたが	-8.8516
環境	-8.85202
んでしょうか	-8.85279
書	-8.85497
形	-8.8569
曲	-8.86115
地	-8.86524
☆	-8.86687
無理	-8.86748
旅行	-8.86868
ましょう	-8.86902
好きな	-8.8704
欲しい	-8.87078
なる	-8.87083
当然	-8.87145
利用	-8.87252
状況	-8.87305
どの	-8.87332
実際に	-8.8734
型	-8.87445
しかも	-8.87461
相手	-8.87555
実際	-8.8764
これから	-8.88007
z	-8.88018
ものです	-8.88256
なのに	-8.88261
表示	-8.88275
直接	-8.88292
会社の	-8.88471
おり	-8.88641
hdd	-8.88661
僕は	-8.88749
できます	-8.89056
別に	-8.89229
しまう	-8.89231
為	-8.8928
通り	-8.89389
のある	-8.89395
け	-8.89501
妊娠	-8.89587
結果	-8.89595
ために	-8.89665
頭	-8.89672
例	-8.89807
学校	-8.89974
意味	-8.90092
させる	-8.9046
大きな	-8.90468
店	-8.90507
になりました	-8.90619
させて	-8.90717
部	-8.90761
言葉	-8.9107
'	-8.91133
朝	-8.91165
そんなに	-8.91227
だって	-8.91278
機能	-8.91309
などは	-8.91312
夜	-8.91365
タイプ	-8.91619
よい	-8.91684
月に	-8.91907
だったので	-8.92084
ときは	-8.92113
程度	-8.92178
のなら	-8.92417
普通の	-8.92631
それから	-8.92749
前の	-8.92771
相手に	-8.9286
一応	-8.9299
内容	-8.9305
実は	-8.93067
こう	-8.93106
さらに	-8.93182
食	-8.93267
人で	-8.93279
cm	-8.93308
量	-8.93578
ろ	-8.93656
行動	-8.94065
高い	-8.94159
テレビ	-8.94217
感	-8.94639
どうして	-8.95031
にある	-8.9505
ど	-8.951
薬	-8.95147
教えて	-8.95355
バ	-8.95451
性格	-8.95517
を教えてください	-8.95631
保険	-8.95704
ケ	-8.9571
<	-8.95828
ですし	-8.95862
このような	-8.95908
どのような	-8.95976
または	-8.95985
必ず	-8.95988
そもそも	-8.96085
宜しくお願いします	-8.96087
多分	-8.96146
ないので	-8.96173
あなたは	-8.96219
id	-8.96254
年齢	-8.96312
いたら	-8.96313
ほとんど	-8.96326
何を	-8.96538
全て	-8.96579
なんで	-8.96741
通	-8.96798
^^	-8.96932
お互い	-8.97098
せ	-8.97325
しましたが	-8.97555
メーカー	-8.97594
東京	-8.97761
いますが	-8.9782
家に	-8.97827
するのは	-8.97876
携帯	-8.98014
彼女は	-8.98054
式	-8.98136
判断	-8.98208
なんでしょうか	-8.98306
足	-8.98363
他に	-8.9842
一人	-8.98443
に行く	-8.98532
光	-8.98633
日本の	-8.98633
熱	-8.98726
【	-8.99187
していない	-8.99199
そうですね	-8.99288
u	-8.99352
の方	-8.9939
引き	-8.99588
♪	-8.99608
なお	-8.99634
事が	-8.99652
簡単に	-8.99736
答え	-8.99759
ぐらい	-8.99813
しません	-8.99886
交換	-9.00011
ただし	-9.00142
会	-9.00247
別	-9.00342
みたいです	-9.00344
はずです	-9.01049
次の	-9.01049
ご回答	-9.01078
があって	-9.0138
もしくは	-9.01516
年間	-9.01545
きっと	-9.01685
19	-9.01701
回答ありがとうございました	-9.01739
もう少し	-9.01747
他	-9.01798
ヌ	-9.01848
浮気	-9.01884
社	-9.02097
のではないでしょうか	-9.021
じ	-9.02279
語	-9.02323
何度も	-9.02344
発	-9.02424
いるのですが	-9.02566
ドライブ	-9.02571
*	-9.02583
食事	-9.02839
ということは	-9.02907
2.	-9.02918
ジ	-9.03072
もあります	-9.03128
やすい	-9.03159
のこと	-9.03234
ブ	-9.03241
上の	-9.03603
のでしょう	-9.03709
良く	-9.03752
ということで	-9.03757
ズ	-9.03902
データ	-9.03909
でしょうね	-9.03945
いるので	-9.04373
or	-9.04381
goo	-9.04434
中に	-9.04444
私には	-9.04459
とにかく	-9.04689
ヨ	-9.04808
だけです	-9.04814
それと	-9.04862
に対する	-9.04881
18	-9.04932
うまく	-9.05011
みんな	-9.05101
事故	-9.05182
全	-9.05283
行って	-9.05354
病院	-9.05492
白	-9.05619
キー	-9.05693
頑張って	-9.05771
いれば	-9.05781
さんが	-9.05801
使う	-9.06091
ずに	-9.06123
文字	-9.06246
○	-9.06247
になっている	-9.06301
彼女の	-9.06312
田	-9.06425
どういう	-9.06625
検索	-9.06636
まあ	-9.06906
言い	-9.07057
彼女が	-9.07136
25	-9.07215
変更	-9.07309
きちんと	-9.07337
番	-9.07342
したのですが	-9.07414
サービス	-9.07661
このまま	-9.07773
システム	-9.07782
ち	-9.07847
たまに	-9.07875
日に	-9.07928
登録	-9.07988
相手が	-9.07988
ことも	-9.08204
今後	-9.08246
すべて	-9.0832
ヒ	-9.08421
出来ない	-9.08453
hp	-9.08454
んですね	-9.08537
ところで	-9.08603
どうか	-9.08606
されます	-9.08612
割	-9.0877
こんばんは	-9.08836
嫌	-9.08868
安い	-9.08963
60	-9.09174
だけど	-9.09183
全然	-9.09313
に行って	-9.09365
映画	-9.09608
と思いますよ	-9.0963
もある	-9.09659
などを	-9.09669
んですか	-9.09677
写真	-9.09757
認識	-9.09813
計算	-9.099
が無い	-9.09988
私と	-9.10002
就職	-9.1008
ませんでした	-9.10096
チェック	-9.10287
困っています	-9.10289
ないと	-9.1035
これが	-9.10447
あって	-9.10557
全部	-9.10599
なにか	-9.10646
しまった	-9.10665
傷	-9.10683
非常に	-9.10781
してます	-9.10804
\	-9.10822
れる	-9.10909
ホ	-9.10946
していました	-9.10967
の場合は	-9.11056
と同じ	-9.11298
ハ	-9.11369
社会	-9.11459
まずは	-9.11484
が多い	-9.11574
御	-9.1165
のかな	-9.11697
からです	-9.11726
入力	-9.1192
なん	-9.12006
なし	-9.12045
作業	-9.12125
16	-9.12295
これを	-9.12309
ても	-9.12339
ここで	-9.12346
勝手に	-9.12429
バイト	-9.12458
々	-9.125
機	-9.12636
の中で	-9.1267
ふ	-9.13091
部分	-9.13121
希望	-9.13155
削除	-9.13235
?(	-9.13365
▁a	-9.13537
母	-9.13538
顔	-9.13544
枚	-9.136
でしたが	-9.13652
あとは	-9.13721
同	-9.13785
英語	-9.13814
再	-9.13836
処理	-9.14027
っている	-9.14178
ャ	-9.14185
といった	-9.14224
を持って	-9.14232
彼と	-9.14246
としても	-9.14259
はず	-9.14577
バー	-9.14592
用の	-9.14935
かと思います	-9.15012
風	-9.15091
からの	-9.15308
と思いました	-9.15397
がありません	-9.15495
けれど	-9.15652
ストレス	-9.15813
大丈夫	-9.15816
までは	-9.15859
れ	-9.15905
そうな	-9.15992
はない	-9.16014
ほしい	-9.16021
持ち	-9.16077
空	-9.16286
すること	-9.16364
意見	-9.16374
おそらく	-9.16375
彼氏	-9.16541
カー	-9.16631
されました	-9.16717
により	-9.16743
×	-9.16772
先に	-9.16808
場	-9.16829
があるので	-9.16855
次	-9.16875
ほうが	-9.16934
補足	-9.1697
っと	-9.17015
人生	-9.17096
管理	-9.17121
メモリ	-9.17124
絶対	-9.17179
これで	-9.1719
書いて	-9.17261
解決	-9.17306
したいのですが	-9.1743
なんです	-9.17436
どのように	-9.17448
htm	-9.17492
いても	-9.17501
後に	-9.17502
が必要	-9.17533
の問題	-9.17692
予定	-9.17845
たくない	-9.17862
ようで	-9.17871
気が	-9.17935
友人	-9.17957
パ	-9.18037
金額	-9.18118
index	-9.1818
ボ	-9.18187
あなた	-9.1819
出す	-9.18239
イメージ	-9.18305
デート	-9.18315
人と	-9.18319
条件	-9.18346
違い	-9.18396
んですけど	-9.18426
表現	-9.18428
ダ	-9.18516
ケース	-9.18607
値	-9.18626
あった	-9.18644
今度	-9.18655
・・・・	-9.18811
なくなる	-9.18898
もらう	-9.19013
いくら	-9.1902
と言われ	-9.1912
以下	-9.19263
のため	-9.19278
いたのですが	-9.19347
時期	-9.19366
られた	-9.19427
というのが	-9.19502
寝	-9.19561
おります	-9.19622
変	-9.19635
反応	-9.19641
ここ	-9.19654
レベル	-9.19989
戦	-9.20021
各	-9.20098
今回	-9.20167
駅	-9.20456
インストール	-9.20465
週間	-9.20553
流	-9.2057
となる	-9.20619
神	-9.208
木	-9.20844
みて	-9.21139
将来	-9.21263
付け	-9.21329
してくれる	-9.21399
リー	-9.21474
がありました	-9.21588
商品	-9.21609
24	-9.217
あの	-9.21861
ことに	-9.21881
楽しい	-9.21911
net	-9.21928
であり	-9.22173
ページ	-9.22181
会社に	-9.22272
気がします	-9.2243
仕事を	-9.22455
間	-9.22459
小さい	-9.2248
でしょ	-9.22719
そこまで	-9.22726
を使う	-9.22876
以外の	-9.22879
もなく	-9.22885
程	-9.23062
使って	-9.23093
昨日	-9.23093
難しい	-9.23217
ています	-9.23255
悪	-9.23297
実	-9.23339
なるほど	-9.23542
訳	-9.23568
が悪い	-9.23662
インターネット	-9.2368
しましょう	-9.23717
来	-9.23763
存在	-9.23829
夫婦	-9.23992
料理	-9.24053
音楽	-9.24102
時の	-9.2414
そのような	-9.24236
▁the	-9.24251
市	-9.24348
資格	-9.24378
しまって	-9.24416
検査	-9.24624
一人で	-9.24707
注意	-9.24791
んですよね	-9.24892
負担	-9.2492
ことで	-9.24946
時間が	-9.2499
会話	-9.25078
になると	-9.25127
家庭	-9.25133
辛い	-9.25163
入	-9.25194
子供の	-9.25214
まぁ	-9.25239
使い	-9.25264
しないと	-9.25283
差	-9.25383
学	-9.25501
▁「	-9.25625
?)	-9.2566
わかる	-9.25769
等の	-9.25795
海	-9.25832
ことです	-9.25917
最近は	-9.25968
じゃ	-9.26082
ことがあります	-9.26103
なくても	-9.26181
ホテル	-9.26245
わからない	-9.26306
バス	-9.26367
修理	-9.26378
win	-9.26521
いって	-9.26731
理由は	-9.26785
保存	-9.26827
名前	-9.26919
昔	-9.26921
期間	-9.26942
ものを	-9.26967
なんとか	-9.27129
切り	-9.27137
運動	-9.2717
大人	-9.27231
選択	-9.27436
14	-9.27449
されています	-9.27474
重	-9.27542
価格	-9.27598
幸せ	-9.27608
個	-9.27638
趣味	-9.27672
お店	-9.27786
しっかり	-9.27878
に関しては	-9.27884
分からない	-9.27902
いたので	-9.27987
努力	-9.27987
ですかね	-9.28043
何故	-9.28085
となります	-9.28169
知らない	-9.28227
自分を	-9.28317
喧嘩	-9.28339
イー	-9.28341
でしたら	-9.28442
販売	-9.28495
右	-9.28594
個人	-9.28703
のほうが	-9.28749
目的	-9.28792
ダメ	-9.2885
のために	-9.29079
話を	-9.29208
se	-9.29212
額	-9.29237
それも	-9.29402
自分に	-9.29416
(1)	-9.29488
請求	-9.29557
あるいは	-9.29566
び	-9.29577
声	-9.29632
文章	-9.29688
#	-9.29769
イン	-9.29871
せず	-9.30039
画像	-9.30192
妻	-9.30242
それぞれ	-9.30273
をしている	-9.30289
気持ちが	-9.30339
試験	-9.30441
="	-9.3051
原	-9.30517
ワ	-9.30565
休み	-9.30609
ということです	-9.30634
ぎ	-9.30945
lan	-9.31055
ものは	-9.31151
収入	-9.31185
たぶん	-9.3119
かもしれない	-9.31199
らしく	-9.31203
夢	-9.3121
しかない	-9.31227
横	-9.31263
まったく	-9.31609
企業	-9.31723
していて	-9.31858
るのは	-9.31942
行為	-9.31973
夫	-9.32171
版	-9.32326
中国	-9.32333
200	-9.32335
xp	-9.32467
を見	-9.32599
電源	-9.32666
なのです	-9.32691
さんは	-9.32742
遊び	-9.32896
いましたが	-9.32964
皆さん	-9.33099
○○	-9.33113
服	-9.3312
バイク	-9.33138
ナウ	-9.33143
られて	-9.33198
gb	-9.33214
17	-9.33225
to	-9.33299
評価	-9.33337
期待	-9.33371
不倫	-9.33381
会う	-9.33436
の話	-9.33573
今年	-9.3379
買って	-9.3384
なぁ	-9.33986
まして	-9.34146
たいのですが	-9.34148
自信	-9.34149
様に	-9.34191
うちの	-9.34281
ガ	-9.34308
3.	-9.3436
出して	-9.34469
エラー	-9.3455
ライン	-9.34641
500	-9.34653
運転	-9.3467
治療	-9.34798
グ	-9.34971
なども	-9.35056
ぶ	-9.35071
er	-9.35093
詳しく	-9.35138
川	-9.35235
第	-9.35276
・・。	-9.35294
が出る	-9.35397
ひ	-9.35403
自	-9.35468
立ち	-9.35558
お礼	-9.35703
疑問	-9.35783
味	-9.35841
ポイント	-9.35888
歳の	-9.35911
逆	-9.35979
ビ	-9.3599
身	-9.36011
楽	-9.36105
機種	-9.3613
料	-9.3617
▁1	-9.36189
この場合	-9.36211
もあり	-9.36246
ユ	-9.36251
銀行	-9.36384
再度	-9.36444
キロ	-9.36768
その他	-9.36866
家の	-9.36919
会って	-9.37111
起動	-9.37154
面倒	-9.37157
学生	-9.37222
週	-9.37361
状態で	-9.37381
悩み	-9.37467
和	-9.37509
2000	-9.37662
対策	-9.37782
島	-9.37886
一つ	-9.37941
web	-9.3798
パン	-9.38044
原因	-9.38179
日本語	-9.38259
たくさん	-9.38397
方は	-9.38406
やら	-9.38462
出産	-9.38464
思う	-9.38504
使える	-9.38532
古い	-9.38608
どうも	-9.38751
なって	-9.38875
正	-9.38964
ing	-9.39108
つき	-9.39343
ること	-9.39354
効果	-9.39441
いろんな	-9.39442
re	-9.39465
野	-9.39517
もう一度	-9.39527
コン	-9.39558
中の	-9.39571
能力	-9.39643
退職	-9.39672
教育	-9.39702
画面	-9.39717
入れ	-9.39757
明日	-9.3979
と思った	-9.39915
読んで	-9.40018
最初は	-9.40025
納得	-9.40053
予約	-9.40077
デ	-9.40107
シート	-9.40138
側	-9.40196
書き	-9.40231
ぐ	-9.40276
わかりません	-9.40366
プ	-9.40536
行き	-9.40574
かかる	-9.40607
カメラ	-9.40645
のない	-9.40717
になっています	-9.40724
多い	-9.40733
もらって	-9.40772
たとえば	-9.40803
意識	-9.40818
らない	-9.40825
プロ	-9.40854
歌	-9.40964
来て	-9.41035
ja	-9.41066
の中に	-9.4114
込み	-9.4115
強い	-9.41175
以下の	-9.41191
完全に	-9.41352
話し	-9.41413
死	-9.41458
症状	-9.41513
突然	-9.41534
アイ	-9.41537
作成	-9.4156
にする	-9.41646
有	-9.41657
営業	-9.41659
指	-9.4168
フォルダ	-9.41688
悩んでいます	-9.41747
我慢	-9.41752
受験	-9.41763
アドレス	-9.41764
移動	-9.41782
製品	-9.41818
しながら	-9.41887
▁ス	-9.41935
弱	-9.41963
やる	-9.41992
してから	-9.4203
人を	-9.4216
“	-9.42239
印刷	-9.42284
投稿	-9.42326
13	-9.42347
php	-9.42375
障害	-9.42387
tv	-9.42528
▁to	-9.42613
番号	-9.42669
なんだか	-9.42703
黒	-9.42801
練習	-9.42809
扱い	-9.42928
今回は	-9.42928
ご回答ありがとうございました	-9.42961
ところが	-9.42989
大きい	-9.43216
it	-9.4328
付き合い	-9.43401
今回の	-9.43438
in	-9.43563
毛	-9.43571
のですね	-9.43629
改善	-9.43754
部屋	-9.43817
気に	-9.43852
知識	-9.43871
ご意見	-9.4393
だろう	-9.43935
解	-9.44023
らしい	-9.44032
するのが	-9.44033
列	-9.44326
んですよ	-9.44328
安く	-9.44419
ネットで	-9.44437
気になる	-9.44478
飲み	-9.4453
状態です	-9.44568
料金	-9.4465
現在の	-9.44753
プログラム	-9.44761
自転車	-9.4477
図	-9.44782
見る	-9.44801
よろしくお願い致します	-9.4483
さえ	-9.44934
ほぼ	-9.44969
正しい	-9.45031
上で	-9.45179
ip	-9.45206
お金を	-9.4526
手術	-9.45301
してしまいました	-9.45347
気分	-9.45425
みたい	-9.45473
土地	-9.45535
ごめんなさい	-9.45573
70	-9.45599
屋	-9.45678
アップ	-9.45773
思います	-9.45779
ありました	-9.45834
わけ	-9.4584
立場	-9.45857
韓国	-9.46065
ような気がします	-9.46211
した場合	-9.46296
にならない	-9.4635
アメリカ	-9.4637
)・	-9.46382
世界	-9.4641
><	-9.46519
いま	-9.46584
つく	-9.46615
出て	-9.46665
そ	-9.46691
ed	-9.46692
平	-9.46789
ある程度	-9.46977
の違い	-9.46988
ファン	-9.46997
限り	-9.47003
80	-9.47022
やり	-9.47029
出る	-9.47033
どうしたら	-9.47038
サイズ	-9.4705
無料	-9.47269
(2)	-9.47276
転職	-9.47295
聞く	-9.47306
メールを	-9.47343
読み	-9.47352
何が	-9.47394
厳しい	-9.47512
くれ	-9.47542
無視	-9.47593
良かった	-9.47645
これも	-9.47689
間違い	-9.47703
赤	-9.47722
go	-9.47816
長く	-9.47877
長い	-9.47921
が一番	-9.47932
車の	-9.48077
コピー	-9.48106
論	-9.48118
line	-9.48398
したところ	-9.48448
となると	-9.4846
まま	-9.48462
ご飯	-9.48496
倍	-9.48597
裏	-9.48652
ie	-9.48691
ローン	-9.48726
年金	-9.48738
業者	-9.48739
地域	-9.48794
相手は	-9.48808
ディスク	-9.48842
受け	-9.48936
席	-9.48994
恋	-9.48994
せる	-9.49025
是非	-9.49075
ますよ	-9.49098
作	-9.49207
むしろ	-9.49223
中学	-9.49272
住所	-9.49302
電気	-9.49318
病	-9.49331
動画	-9.49419
更新	-9.49467
職	-9.49498
のもの	-9.49559
いつ	-9.49612
モノ	-9.49652
いう	-9.49654
cpu	-9.49796
室	-9.49857
mo	-9.49866
器	-9.49888
っていう	-9.49912
嫌い	-9.49951
石	-9.49995
いや	-9.5011
来る	-9.50141
言った	-9.50155
は何	-9.50183
上記の	-9.50184
なります	-9.50233
色々な	-9.50269
作品	-9.50377
mb	-9.5039
ピ	-9.50414
犬	-9.50438
法律	-9.50456
付き	-9.50464
合	-9.50504
考える	-9.50586
ぜひ	-9.50601
彼女に	-9.5061
期	-9.5064
を入れて	-9.50685
別れ	-9.50751
すいません	-9.50787
おかしい	-9.50793
迷惑	-9.50874
ではないでしょうか	-9.50969
花	-9.50989
女子	-9.51044
上記	-9.51112
技術	-9.51161
持って	-9.51165
入院	-9.51242
可愛い	-9.51269
としたら	-9.51283
支払い	-9.51297
近く	-9.51312
5%	-9.51481
可能	-9.51502
反対	-9.5151
22	-9.51525
紙	-9.51591
操作	-9.51603
ゴ	-9.51709
通常	-9.51721
▁"	-9.51731
1000	-9.51738
終了	-9.51788
火	-9.51895
早い	-9.51912
ったり	-9.51949
権	-9.52013
少しでも	-9.52028
いきなり	-9.52092
もともと	-9.52141
もありません	-9.52156
時代	-9.52182
なるべく	-9.52268
をした	-9.52293
もので	-9.52295
多く	-9.52331
事実	-9.52394
セックス	-9.52405
想像	-9.52415
ないように	-9.52434
かと	-9.52445
前から	-9.52451
すぎて	-9.52516
費	-9.5255
低	-9.52595
スト	-9.52647
どうやって	-9.52686
参考になりました	-9.52716
告白	-9.52832
絶対に	-9.52851
公	-9.52871
マンション	-9.52887
東	-9.52954
急に	-9.52972
字	-9.52976
usb	-9.53003
何とか	-9.53037
もない	-9.53049
アドバイスを	-9.53093
給料	-9.53126
オー	-9.53145
系の	-9.53214
したこと	-9.53243
すら	-9.53302
宜しくお願い致します	-9.53393
くらいの	-9.53396
ちゃん	-9.53449
https	-9.53502
られない	-9.53564
強	-9.53707
天	-9.53718
対	-9.53747
親に	-9.5376
......	-9.53783
はっきり	-9.53796
●	-9.53822
しばらく	-9.53914
異常	-9.5411
コード	-9.54112
つの	-9.54293
後は	-9.54339
最後に	-9.54397
セル	-9.54462
どうすれば	-9.54472
食べ	-9.54544
つけ	-9.54564
指定	-9.54611
↓	-9.54699
23	-9.54754
無線	-9.54754
上に	-9.54758
なった	-9.54765
はあまり	-9.54818
目に	-9.54827
責任	-9.54828
聞き	-9.54851
自分も	-9.54852
親の	-9.54954
北	-9.54974
合い	-9.55034
ko	-9.55098
あれば	-9.55107
汗	-9.55119
ぞ	-9.55503
血	-9.55668
基本	-9.55698
日本人	-9.55709
乗り	-9.55793
すでに	-9.55899
90	-9.55965
どちら	-9.56025
してしまう	-9.56046
紹介	-9.56215
分の	-9.56221
他にも	-9.56277
貯金	-9.56315
ものなのでしょうか	-9.56368
21	-9.56373
過ぎ	-9.56392
センター	-9.56403
借金	-9.56468
いると	-9.56494
などに	-9.56533
^^;	-9.5654
yahoo	-9.56581
普段	-9.56602
すべき	-9.56669
かけて	-9.56686
していますが	-9.56689
県	-9.56695
調べて	-9.56749
はありますか	-9.56768
書き込み	-9.56795
安	-9.56837
かけ	-9.56969
早速	-9.56993
女性の	-9.57084
再生	-9.57088
そういった	-9.57108
300	-9.57121
みます	-9.57153
費用	-9.57169
すごい	-9.57204
皆	-9.57219
失敗	-9.573
海外	-9.57353
左	-9.57367
そんなこと	-9.57413
残	-9.57453
彼女と	-9.57454
余裕	-9.57542
うちに	-9.57556
非	-9.5756
級	-9.57574
と思うので	-9.57651
を持つ	-9.57664
入り	-9.5768
なくなりました	-9.5772
多	-9.57767
土	-9.57868
on	-9.57868
これって	-9.57926
半	-9.58012
夫の	-9.58028
言えば	-9.58101
採用	-9.58308
剤	-9.58352
関数	-9.58371
▁i	-9.58398
エンジン	-9.58425
面接	-9.58447
ミテ	-9.58491
四	-9.58538
返信	-9.58599
既に	-9.58607
仮に	-9.58667
主	-9.58909
必要な	-9.58926
素	-9.59045
怖い	-9.59055
にとって	-9.59142
変な	-9.59179
損	-9.59189
町	-9.59189
を作る	-9.59238
買い	-9.59276
返済	-9.59306
ノート	-9.59381
追加	-9.59608
ポ	-9.59619
受信	-9.59629
毎回	-9.59654
くれた	-9.59723
小さな	-9.59821
違反	-9.59833
がいい	-9.60057
at	-9.60082
二人	-9.60103
はじめまして	-9.60122
の方に	-9.60124
制限	-9.60329
女性は	-9.60334
00	-9.60344
勤務	-9.60356
多少	-9.60393
大阪	-9.60444
はい	-9.60484
そこに	-9.60517
という事	-9.60527
分かる	-9.6053
払い	-9.60565
よかった	-9.60579
印象	-9.60594
社員	-9.60651
話す	-9.60697
★	-9.60721
一日	-9.60731
ようですが	-9.60742
頃	-9.60749
変化	-9.60879
ミス	-9.60947
出来れば	-9.61035
免許	-9.61039
強く	-9.61145
歯	-9.6116
もしかしたら	-9.6118
ついて	-9.61191
泊	-9.61206
雰囲気	-9.61283
のでは	-9.6129
興味	-9.61296
現状	-9.6139
買い物	-9.61511
すぎ	-9.61551
というのも	-9.61572
^	-9.61582
得	-9.61629
アニメ	-9.61749
常に	-9.61772
にくい	-9.61778
ぼ	-9.61779
初	-9.61877
弁護士	-9.61883
出し	-9.61902
でしょうが	-9.61904
次に	-9.61921
あれ	-9.61973
込んで	-9.62033
産	-9.62079
申請	-9.62141
報告	-9.62172
結婚して	-9.62178
をしています	-9.62179
もいい	-9.62294
いっぱい	-9.62325
以上の	-9.62389
考え方	-9.6239
職場	-9.62413
を作って	-9.62489
面白い	-9.62505
軽く	-9.62537
マン	-9.62548
もらえる	-9.62574
したいです	-9.62663
撮影	-9.62761
証拠	-9.62792
▁2	-9.62822
なくなった	-9.62898
だけの	-9.62938
32	-9.62961
誰か	-9.62968
されない	-9.63063
食べて	-9.63097
が出て	-9.63119
安心	-9.63148
過去	-9.63159
一般	-9.63184
だけでも	-9.63189
られ	-9.63251
が違う	-9.6326
先輩	-9.63295
動作	-9.63296
しますが	-9.63335
だそうです	-9.63366
実行	-9.63539
何度か	-9.63569
になってしまいます	-9.63669
トイレ	-9.63673
記憶	-9.6382
ac	-9.63939
大きく	-9.63958
(?)	-9.64061
以外	-9.64117
物を	-9.64204
転	-9.64319
せずに	-9.64343
、『	-9.64361
警察	-9.64405
回答を	-9.64438
スポーツ	-9.64518
年の	-9.64555
ですけど	-9.64578
思い出	-9.64659
軽	-9.64716
作り	-9.64717
ダウンロード	-9.64736
28	-9.6482
猫	-9.64831
信用	-9.64852
最初の	-9.64883
研究	-9.64884
時には	-9.64885
いろいろな	-9.6491
st	-9.64982
元々	-9.65057
のかもしれません	-9.65079
に入って	-9.65114
あたり	-9.65116
アルバイト	-9.65179
っぽい	-9.65191
罪	-9.65201
続けて	-9.65241
みなさん	-9.65357
時々	-9.65435
具体的に	-9.65507
客	-9.65517
南	-9.65538
作って	-9.65538
セット	-9.65636
するか	-9.65641
的には	-9.65704
の事	-9.65711
付き合う	-9.65747
言われ	-9.6576
げ	-9.65761
26	-9.65829
渡	-9.65841
ケーブル	-9.66072
らしいです	-9.66127
現実	-9.66141
書類	-9.66166
を見ると	-9.6618
二人で	-9.66361
35	-9.66399
ビデオ	-9.66403
自己	-9.66435
業務	-9.66513
と言われて	-9.66525
しております	-9.66763
率	-9.66774
みる	-9.66775
るので	-9.66783
ット	-9.66832
角	-9.66842
どうぞ	-9.66887
アクセス	-9.66914
放送	-9.66928
中で	-9.66941
できた	-9.66953
ほう	-9.66959
ダイエット	-9.66961
ウー	-9.66982
簡単な	-9.67016
こんなに	-9.67044
手を	-9.67144
親が	-9.67147
もらった	-9.67176
てしまう	-9.67178
父	-9.67184
大体	-9.67212
▁-	-9.67252
保証	-9.67374
において	-9.67404
仲	-9.67425
命	-9.67443
制	-9.67458
挨拶	-9.67527
入れて	-9.67577
バック	-9.67627
さんに	-9.67629
申し訳ありません	-9.6764
義務	-9.67657
件	-9.67749
mm	-9.67752
種	-9.67766
グループ	-9.67799
不足	-9.67831
距離	-9.67849
範囲	-9.67854
別れる	-9.67923
していません	-9.6795
事も	-9.68123
に関して	-9.68205
しているのですが	-9.68257
工事	-9.68326
ma	-9.68358
買った	-9.68377
一回	-9.68413
ように思います	-9.6843
速度	-9.68461
態度	-9.68462
べき	-9.68483
生理	-9.68495
質	-9.68507
上手く	-9.68512
と思っている	-9.68538
デザイン	-9.68569
わけです	-9.68596
できました	-9.68601
自分から	-9.6862
しよう	-9.68747
テスト	-9.68764
立	-9.68891
食べる	-9.68971
によっては	-9.6898
落ち	-9.69009
分かって	-9.69053
感情	-9.69057
がなく	-9.69063
僕の	-9.69107
ますよね	-9.69117
成長	-9.69218
なかったので	-9.69262
成	-9.69274
行った	-9.69312
どんどん	-9.69347
程度の	-9.69354
がありますが	-9.69398
98	-9.69449
仕事が	-9.69563
員	-9.69578
パート	-9.69601
のではないか	-9.69651
制度	-9.69651
出力	-9.69665
al	-9.69684
肉	-9.69827
なりました	-9.69831
派	-9.69842
して下さい	-9.69861
からは	-9.69896
基本的に	-9.69932
すぎる	-9.70048
いいと思います	-9.70053
良いと思います	-9.70141
電	-9.70152
れない	-9.70152
自然	-9.70251
わざわざ	-9.70254
リンク	-9.70259
プラン	-9.70343
業	-9.70357
ようになりました	-9.70442
ハイ	-9.70496
思って	-9.70547
$	-9.70594
安全	-9.70627
ないし	-9.70634
居	-9.70682
を取り	-9.70683
は無い	-9.70741
に入る	-9.70755
種類	-9.70916
ユーザー	-9.70935
お付き合い	-9.7099
数字	-9.71027
しい	-9.71089
ゆっくり	-9.71096
を見る	-9.71102
付	-9.71154
ほ	-9.71232
ありますか	-9.71435
にしても	-9.71496
男性は	-9.71568
送信	-9.71625
側の	-9.71703
27	-9.71719
僕	-9.71746
縁	-9.71746
回り	-9.7182
貴方の	-9.71844
更に	-9.7185
女性が	-9.71856
禁止	-9.71911
根	-9.71958
対象	-9.72041
mac	-9.72043
子供を	-9.72045
不満	-9.72071
下の	-9.72074
感覚	-9.72108
に関する	-9.72112
切れ	-9.72124
ps	-9.7215
体重	-9.72201
嘘	-9.72206
便	-9.72225
本当は	-9.72226
の時	-9.72231
ここまで	-9.7234
質問を	-9.72344
終わり	-9.72353
そこから	-9.72431
娘	-9.72453
を買って	-9.72455
が高い	-9.72495
事件	-9.72507
危険	-9.72572
恋人	-9.72572
ゆ	-9.72581
時間を	-9.72604
みたいに	-9.72619
子供は	-9.72663
その時	-9.72709
こともあります	-9.72736
米	-9.72783
くれて	-9.72825
ひと	-9.72845
アン	-9.72865
しているので	-9.72868
真	-9.72878
そうで	-9.72939
数学	-9.72969
下記	-9.7299
乗	-9.72994
なければならない	-9.73014
のことを	-9.73015
製	-9.73022
やつ	-9.73052
影響	-9.73188
4.	-9.73198
一生	-9.73249
満足	-9.73278
友達と	-9.7328
壁	-9.73385
メールで	-9.73387
美	-9.73428
号	-9.73525
夫は	-9.73574
同居	-9.73621
社会人	-9.73704
私を	-9.73713
トラブル	-9.73781
彼氏が	-9.7397
だいたい	-9.73995
腹	-9.74021
モデル	-9.74061
買う	-9.74095
戦争	-9.74182
母親	-9.74274
を買う	-9.74277
まだまだ	-9.74306
だよ	-9.74333
スーパー	-9.74336
変換	-9.74351
相当	-9.74412
アプリ	-9.74413
超	-9.7449
耳	-9.74525
バカ	-9.7457
してしまいます	-9.74584
てる	-9.74612
通信	-9.74632
と思われます	-9.74705
怒り	-9.7472
いますか	-9.74788
言われて	-9.74798
が多く	-9.74799
同じような	-9.74843
等で	-9.74868
▁・	-9.74893
居る	-9.74916
に近い	-9.74968
かった	-9.74982
人も	-9.74992
西	-9.75044
科	-9.75066
me	-9.75135
地方	-9.75211
わかって	-9.75234
条	-9.75268
覚悟	-9.75277
忙しい	-9.75278
当たり前	-9.7528
ひどい	-9.7529
ボタン	-9.75301
家賃	-9.75318
観	-9.75358
お願い	-9.75411
ものが	-9.75495
ないです	-9.75526
が必要です	-9.7565
なさい	-9.75672
税金	-9.75764
丸	-9.7582
女の子	-9.75822
こちらの	-9.75843
じゃないですか	-9.7587
変わる	-9.75982
▁ョ	-9.75985
最初に	-9.75995
などが	-9.76019
予算	-9.76032
ガス	-9.76035
加入	-9.76065
が良い	-9.76078
車で	-9.76151
いわゆる	-9.76159
計	-9.7616
合う	-9.7635
生きて	-9.76357
半年	-9.7647
友達に	-9.7649
リング	-9.76502
私から	-9.7652
仕事で	-9.76525
電車	-9.76532
無し	-9.7655
の時に	-9.76592
詳しい	-9.76636
こそ	-9.76685
クウ	-9.7669
機会	-9.76722
たち	-9.76765
おいて	-9.7686
しようと	-9.76922
難	-9.76971
少ない	-9.77035
お勧め	-9.77036
na	-9.77048
住宅	-9.77098
失	-9.77126
ティ	-9.77146
いいのでしょうか	-9.77148
取得	-9.77163
の方は	-9.77205
約束	-9.77238
といっても	-9.77258
先生	-9.77305
板	-9.77316
どちらも	-9.77326
男子	-9.77352
ができる	-9.77363
なくなり	-9.77401
青	-9.77406
日目	-9.77458
手続き	-9.77461
といって	-9.77472
それだけ	-9.77536
やっと	-9.77591
ねぇ	-9.77692
ic	-9.77708
たのですが	-9.77759
骨	-9.77765
=1	-9.7777
らず	-9.77772
定	-9.77897
役	-9.779
と言った	-9.77917
可能性	-9.77923
音が	-9.77988
と言っても	-9.78
と考えています	-9.78035
oshiete	-9.78041
経済	-9.78182
十分	-9.78224
宗教	-9.78326
参加	-9.78334
あくまで	-9.78381
だと思いますが	-9.78448
分かりません	-9.78488
どちらが	-9.78545
固定	-9.78546
クラス	-9.78601
いいのか	-9.78611
給与	-9.78624
一切	-9.78648
掃除	-9.78671
編集	-9.78716
現在は	-9.78753
様子	-9.78767
ようと	-9.78791
否定	-9.78792
してしまった	-9.78816
400	-9.78954
にて	-9.78996
ザ	-9.79019
になったら	-9.79078
魚	-9.79083
返事	-9.79155
サーバー	-9.79214
高校生	-9.79238
ります	-9.79238
波	-9.79248
ツール	-9.79282
わたしは	-9.793
優しい	-9.79333
見た	-9.79396
出会い	-9.79398
税	-9.79438
つもり	-9.79443
施設	-9.79492
違います	-9.79552
会社で	-9.79554
方に	-9.79605
大学の	-9.79703
???	-9.79709
さま	-9.79715
デスクトップ	-9.79733
しますか	-9.79756
自由	-9.79777
なくなります	-9.79803
を受け	-9.79819
来た	-9.79882
km	-9.79928
彼を	-9.79983
精神	-9.79996
kg	-9.80031
ファイルを	-9.80062
類	-9.8011
独身	-9.80168
をつけて	-9.80179
バックアップ	-9.80191
彼も	-9.80205
心の	-9.80222
派遣	-9.80225
組	-9.80317
っています	-9.80329
ベ	-9.80362
ひとつ	-9.80435
局	-9.8044
嫁	-9.80465
後の	-9.80465
色々と	-9.80538
したいと思います	-9.80543
止め	-9.80546
というもの	-9.80558
記録	-9.80562
フル	-9.80608
かもしれませんね	-9.80612
してきた	-9.80668
▁+	-9.80704
内に	-9.80759
どう思いますか	-9.80775
となり	-9.80862
打ち	-9.8089
させ	-9.8099
(3)	-9.8102
番組	-9.81065
息子	-9.81069
みると	-9.81091
働き	-9.81153
なんとなく	-9.81188
為に	-9.81204
動	-9.81214
言	-9.81343
校	-9.814
私自身	-9.81451
半分	-9.81467
素人	-9.81491
するので	-9.81507
と言います	-9.81507
実家	-9.81509
とは思いますが	-9.81608
("	-9.81621
夏	-9.81629
家で	-9.8167
いたり	-9.81693
早	-9.81722
生徒	-9.81742
入って	-9.8175
絵	-9.81768
はある	-9.81824
健康	-9.81833
今でも	-9.81902
道路	-9.81931
▁c	-9.8195
いった	-9.81988
標準	-9.81992
自分でも	-9.81995
常識	-9.82193
痛み	-9.82193
過去に	-9.82197
軽い	-9.82263
向き	-9.82353
どこか	-9.82366
ター	-9.82374
調査	-9.82395
基準	-9.82444
皆さんは	-9.82502
未	-9.82505
兄弟	-9.82511
別れた	-9.82658
寝て	-9.8268
出来	-9.82747
出来ません	-9.82791
とっても	-9.82792
好み	-9.82858
タイヤ	-9.82871
先の	-9.82954
逃げ	-9.82983
証明	-9.82993
有難うございました	-9.8303
どこに	-9.83092
つけて	-9.83116
ロー	-9.83127
しかありません	-9.83132
ネットワーク	-9.8318
〜」	-9.83201
シー	-9.83223
才	-9.83256
わかります	-9.83346
人気	-9.83353
物件	-9.83376
最低	-9.83383
友達が	-9.83395
話題	-9.83423
内の	-9.83449
からね	-9.83681
情報を	-9.83684
腕	-9.83689
準備	-9.83726
俺	-9.83733
スマホ	-9.83742
少なくとも	-9.83748
沢山	-9.83787
油	-9.83822
者の	-9.83831
最初から	-9.83834
レンズ	-9.83867
問題は	-9.83874
ch	-9.8389
嬉しいです	-9.83937
ぬ	-9.83953
調整	-9.84056
機器	-9.84081
sp	-9.84081
売り	-9.84102
計画	-9.84125
酒	-9.84131
お互いに	-9.84154
こちら	-9.84169
とこ	-9.84186
活動	-9.84198
だったり	-9.84265
不安です	-9.84386
所得	-9.8439
初心者	-9.84408
知っている	-9.84417
授業	-9.84428
今日は	-9.84522
メニュー	-9.84537
コメント	-9.84546
する事	-9.84561
連	-9.84594
と思ってます	-9.8462
キス	-9.8466
観光	-9.84701
卒業	-9.8472
することは	-9.84727
仲良く	-9.84747
押し	-9.84775
言い方	-9.84779
手段	-9.84792
治	-9.84795
au	-9.84805
をしました	-9.84805
明	-9.84812
子ども	-9.84838
最後の	-9.84861
の設定	-9.84863
はまだ	-9.84889
ペ	-9.84889
たいです	-9.84897
若い	-9.84955
になってしまう	-9.85019
ではないので	-9.85039
できるだけ	-9.85129
仕事の	-9.8515
に入れて	-9.85154
窓	-9.85239
していく	-9.85317
サポート	-9.85318
かも知れません	-9.85367
3%83%	-9.85384
諦め	-9.85439
かた	-9.85453
自動車	-9.85468
誰も	-9.85468
ますね	-9.8547
。※	-9.85492
ばかりで	-9.85492
合格	-9.85502
断	-9.85522
髪	-9.85525
掛け	-9.85657
社長	-9.85702
流れ	-9.85707
qa	-9.85723
フリー	-9.85768
首	-9.85772
価値	-9.85773
29	-9.85808
単に	-9.85868
mp	-9.85889
使っている	-9.85971
選手	-9.85975
ディ	-9.85982
運	-9.86032
の仕方	-9.86052
があると	-9.86089
案	-9.86136
部活	-9.8616
雑誌	-9.86185
発言	-9.86206
ro	-9.86217
のではなく	-9.86236
筋	-9.86241
いいのですが	-9.86256
の意味	-9.86282
ォ	-9.86284
新聞	-9.86302
身長	-9.86344
確か	-9.86417
どうもありがとうございました	-9.86462
勘違い	-9.86496
やりたい	-9.86505
言われた	-9.86521
拒否	-9.86523
あなたに	-9.86527
まる	-9.86551
何の	-9.86559
という気持ち	-9.86573
だな	-9.86588
あんまり	-9.86614
べ	-9.86623
指導	-9.86628
タイミング	-9.86643
試	-9.86649
落	-9.86697
ka	-9.86796
知	-9.86923
医師	-9.86928
都合	-9.86948
始め	-9.86965
街	-9.86983
するには	-9.87024
くらいです	-9.8707
ω	-9.87099
裁判	-9.87152
▁́	-9.87174
日々	-9.8718
を取る	-9.8719
くれない	-9.87195
タイトル	-9.87202
仲間	-9.87255
多くの	-9.87256
株	-9.87263
又	-9.87297
過去の	-9.87312
漫画	-9.8733
方がいい	-9.87338
おく	-9.87369
は全く	-9.87431
45	-9.87441
結婚する	-9.87463
話して	-9.87558
と言い	-9.87563
塾	-9.87602
リスク	-9.87623
ブランド	-9.87666
女性に	-9.87786
脳	-9.87793
帰って	-9.87811
症	-9.87852
解約	-9.87875
当	-9.87899
le	-9.87947
楽しく	-9.87997
介護	-9.88003
プラス	-9.88068
つい	-9.8807
複数	-9.88105
の回答	-9.88127
ればいい	-9.88143
途中で	-9.88147
!!!	-9.88219
最	-9.88238
覚え	-9.88251
区	-9.88266
いないので	-9.88303
de	-9.88338
なんだ	-9.88379
を探しています	-9.88385
者が	-9.88387
嬉しい	-9.8843
箱	-9.88471
取引	-9.88493
さて	-9.88512
明らかに	-9.8852
皆さんの	-9.88564
なんですね	-9.88618
けどね	-9.88669
調	-9.88676
やった	-9.88732
極	-9.88752
いきます	-9.88793
彼から	-9.88849
続ける	-9.88858
しなければ	-9.88968
通勤	-9.89016
アンテナ	-9.89032
男女	-9.89059
なんですか	-9.89161
気持ちを	-9.89207
後悔	-9.89326
▁b	-9.89413
ルール	-9.89431
のだと思います	-9.89457
利益	-9.89613
相手を	-9.89643
ければ	-9.89645
個人的には	-9.89653
ギ	-9.8966
検討	-9.89687
のようなもの	-9.8971
端	-9.89835
ものでしょうか	-9.89841
などと	-9.89854
シリーズ	-9.89887
ブログ	-9.89889
男の子	-9.8992
アーー	-9.89922
内で	-9.89925
上司	-9.90023
痛い	-9.90078
機械	-9.90086
鼻	-9.90091
だったのですが	-9.90135
mi	-9.90165
病院に	-9.90273
単位	-9.90281
がないので	-9.90317
話し合い	-9.90326
のまま	-9.90333
方の	-9.90347
ものの	-9.9038
両	-9.90404
重い	-9.90442
形式	-9.90505
毎月	-9.90538
調べ	-9.90546
話が	-9.90568
そうですが	-9.90585
込む	-9.90594
▁→	-9.90669
空港	-9.90684
駐車場	-9.9069
仕方ない	-9.90703
参考に	-9.90779
ad	-9.90817
育児	-9.90898
働いて	-9.9091
本体	-9.91
してもらう	-9.91059
しないで	-9.91065
特別	-9.91124
電話で	-9.91146
送って	-9.91155
近くに	-9.91157
もありますが	-9.91182
したくない	-9.9121
if	-9.9129
胸	-9.91296
しており	-9.91366
なぜか	-9.91383
塩	-9.9141
ことになります	-9.91422
失礼	-9.91457
だと思うのですが	-9.91491
抵抗	-9.91491
はかなり	-9.91524
日の	-9.9153
レス	-9.91548
現象	-9.91603
時間は	-9.91609
別れて	-9.91667
生き	-9.91672
周りの	-9.9169
秒	-9.91711
主人の	-9.91726
以外に	-9.91729
同僚	-9.91761
方法を	-9.91776
ないと思います	-9.91839
とおもいます	-9.9186
犯罪	-9.91867
様な	-9.91875
総	-9.91903
元気	-9.92006
解釈	-9.92031
▁in	-9.92066
バッテリー	-9.92142
お風呂	-9.92162
を考えて	-9.92166
月から	-9.92183
れて	-9.92199
国民	-9.92218
自動	-9.92278
プレゼント	-9.92309
達	-9.92315
女性と	-9.92322
書いた	-9.92339
筋肉	-9.92388
できて	-9.92414
言われました	-9.92425
はしない	-9.92455
日間	-9.92461
回転	-9.92496
虫	-9.92503
飲んで	-9.92519
sa	-9.92539
旦那	-9.9254
も同じ	-9.92542
星	-9.9255
予定です	-9.92568
何でも	-9.92571
があるのでしょうか	-9.92583
無く	-9.92585
又は	-9.9262
はあります	-9.92667
専門	-9.92686
皆様	-9.92693
るように	-9.92703
られている	-9.92718
本人	-9.92767
取って	-9.92823
予想	-9.9284
ラー	-9.9286
平均	-9.92993
いくつか	-9.93033
パターン	-9.93145
痛	-9.93218
事情	-9.93249
親戚	-9.93291
可	-9.93305
病院で	-9.93308
みてください	-9.93331
知り合い	-9.93338
言われる	-9.93413
るか	-9.93425
雪	-9.93436
記載	-9.9348
近い	-9.93488
交際	-9.93509
ラン	-9.93515
いけない	-9.93544
めて	-9.93553
ずつ	-9.93567
スピード	-9.93581
だと思う	-9.93582
動き	-9.93587
人間関係	-9.93625
肩	-9.93633
過	-9.93684
さすがに	-9.93695
頻繁に	-9.93734
苦労	-9.93759
2)	-9.93769
ころ	-9.93784
オススメ	-9.93797
大学生	-9.93817
みたいで	-9.93923
とします	-9.93967
3%82%	-9.9402
パソコンの	-9.9403
球	-9.94054
を受ける	-9.94055
帰る	-9.94129
感じです	-9.94143
背	-9.94192
ありますが	-9.94208
最高	-9.94238
感謝	-9.9425
離れて	-9.94275
同棲	-9.94286
王	-9.94341
800	-9.94374
うちは	-9.94418
でき	-9.94429
周りに	-9.94447
を出して	-9.9447
そろそろ	-9.94486
腰	-9.94525
癖	-9.94537
間に	-9.94549
動物	-9.94573
と一緒に	-9.94605
あるので	-9.94654
cc	-9.94661
ms	-9.94684
済み	-9.94715
これまで	-9.94724
の名前	-9.94735
リスト	-9.94796
ドライバ	-9.94812
共有	-9.94849
ここに	-9.94857
マーク	-9.94866
解説	-9.94936
気になって	-9.94966
時点で	-9.94987
ありがとう	-9.94989
他人	-9.95042
ウイルス	-9.95058
相	-9.95089
を購入	-9.95182
両方	-9.95206
温泉	-9.95215
入学	-9.95235
|	-9.95265
ショップ	-9.95383
辞め	-9.95443
になってしまいました	-9.95448
春	-9.95467
値段	-9.95485
5.	-9.95503
申告	-9.95556
口座	-9.95562
してみます	-9.95564
行きたい	-9.95577
橋	-9.95583
扶養	-9.9561
園	-9.9564
替え	-9.95652
※	-9.95688
一方	-9.95688
側に	-9.95701
切	-9.95723
おすすめ	-9.95749
家事	-9.95795
方向	-9.95842
たいと思います	-9.95899
第一	-9.95965
jr	-9.95968
勿論	-9.95971
というような	-9.95986
有効	-9.96005
コース	-9.96016
千円	-9.96017
じゃあ	-9.96045
野菜	-9.96065
事に	-9.96082
の人	-9.9611
あげる	-9.96122
言語	-9.9615
増	-9.96174
があったら	-9.96174
回線	-9.96222
その時は	-9.96223
昔の	-9.96242
みたら	-9.96303
サン	-9.9634
つか	-9.96343
はどう	-9.96366
いか	-9.96422
ないといけない	-9.96439
困る	-9.96465
データを	-9.96481
取	-9.96522
卵	-9.96529
京都	-9.9653
ドア	-9.9653
ホームページ	-9.96547
世の中	-9.96548
だけは	-9.96566
積	-9.9658
低い	-9.96604
誘って	-9.96656
パー	-9.96678
ブレーキ	-9.96698
とする	-9.96716
開発	-9.96732
チャ	-9.96732
素直に	-9.96737
五	-9.96752
だけでなく	-9.96804
してしまい	-9.96825
整理	-9.96831
るような	-9.96859
肌	-9.96861
信頼	-9.96986
お子さん	-9.97011
手数料	-9.97028
男性の	-9.97038
理	-9.9704
伝えて	-9.97057
方法は	-9.97079
でない	-9.97082
と思われる	-9.97097
雨	-9.97105
変わって	-9.97122
見た目	-9.97129
んだろう	-9.97133
愛情	-9.97138
んだから	-9.9714
提出	-9.97193
ないのですが	-9.9722
わたし	-9.97236
当方	-9.97257
働く	-9.97343
依頼	-9.97374
停止	-9.97375
嫌な	-9.97377
結婚式	-9.97378
▁of	-9.97448
管	-9.97511
長文	-9.9753
されていない	-9.97543
されてる	-9.97543
古	-9.97552
遅い	-9.97565
ドラマ	-9.97614
の関係	-9.97637
・・・)	-9.97693
どこの	-9.97724
せっかく	-9.97755
るのが	-9.97789
自宅	-9.978
脱	-9.97826
メディア	-9.97841
録画	-9.97844
疲れ	-9.97875
たので	-9.9791
母は	-9.97914
引	-9.97941
処分	-9.97958
神経	-9.97962
たく	-9.97978
勇気	-9.98017
いじめ	-9.98022
即	-9.9804
恥ずかしい	-9.98043
ピン	-9.98048
彼氏と	-9.98072
サー	-9.98087
られます	-9.98227
考えると	-9.98314
よって	-9.98353
昔から	-9.98388
担当	-9.98444
お答え	-9.98449
馬鹿	-9.98478
限定	-9.98512
者です	-9.9854
貴方	-9.98547
を出す	-9.98557
が少ない	-9.98645
心が	-9.98647
言わない	-9.9869
来年	-9.98739
アカウント	-9.98783
質問です	-9.98844
くれます	-9.98865
と思っているのですが	-9.98899
今のところ	-9.98947
映像	-9.98949
したので	-9.99168
どうでしょうか	-9.99221
それなりに	-9.99234
交渉	-9.993
作る	-9.99302
決して	-9.99322
を教えて下さい	-9.99345
奴	-9.99364
テーブル	-9.99376
歳で	-9.9938
年収	-9.99381
マイ	-9.99387
までの	-9.99389
エー	-9.99431
今年の	-9.99466
だけでは	-9.99485
になりますが	-9.99503
ほうがいい	-9.99556
はほとんど	-9.99623
焼き	-9.99624
当日	-9.9966
姉	-9.99674
月の	-9.99683
保護	-9.99701
年以上	-9.99727
幅	-9.99743
学部	-9.99779
ただの	-9.99817
-1	-9.99826
母が	-9.99923
割り	-9.99953
妻の	-9.99954
あまりにも	-10
かわいい	-10.0001
反省	-10.0002
それほど	-10.0002
袋	-10.0006
向け	-10.0008
今から	-10.0008
マイナス	-10.0009
残り	-10.0009
に行った	-10.0015
つもりです	-10.002
保険料	-10.002
ませんか	-10.0023
であって	-10.0035
を持っている	-10.0037
すればいい	-10.004
になるので	-10.004
有難うございます	-10.004
待って	-10.0042
箇所	-10.0043
涙	-10.0045
昨年	-10.0046
ていた	-10.0049
階	-10.0051
大丈夫です	-10.0052
項目	-10.0053
んだよ	-10.0054
これ以上	-10.0057
る事	-10.0058
のですから	-10.006
たまたま	-10.0071
ック	-10.0071
部品	-10.0073
リン	-10.0077
ろう	-10.008
確実に	-10.0081
具体的な	-10.0091
1)	-10.0098
開	-10.0109
国際	-10.0109
上げ	-10.0113
要求	-10.0113
最近の	-10.0115
再起動	-10.0117
仕事は	-10.0117
事務	-10.0121
言うと	-10.0122
振り	-10.0122
1,	-10.0122
信	-10.0125
やめ	-10.0127
士	-10.0128
少しずつ	-10.0128
過ぎて	-10.0133
やっている	-10.0134
誰	-10.0134
顔を	-10.0135
を持ち	-10.014
進	-10.014
実家に	-10.0143
幼稚園	-10.0145
とのこと	-10.015
になれば	-10.015
仕事に	-10.0152
説	-10.0155
とはいえ	-10.0156
ところに	-10.0156
を読んで	-10.0158
を受けて	-10.016
凄く	-10.016
事で	-10.0161
聞いた	-10.0162
小学校	-10.0166
新規	-10.0166
できず	-10.0167
夫が	-10.0172
ことはありません	-10.0173
馬	-10.0177
友人に	-10.0181
ga	-10.0183
中学生	-10.0183
↑	-10.0184
が出来る	-10.0184
体験	-10.0185
男性が	-10.019
旧	-10.0192
と思ったのですが	-10.0196
職業	-10.0202
目が	-10.0215
泣いて	-10.0219
ドル	-10.0223
座	-10.0231
ba	-10.0233
許可	-10.0234
単語	-10.0234
の為	-10.0234
ママ	-10.0235
メリット	-10.0239
誕生日	-10.0249
一部	-10.025
集	-10.0256
#1	-10.0259
本気で	-10.0265
までに	-10.0267
目標	-10.0268
本当の	-10.027
美味しい	-10.0273
船	-10.0274
ku	-10.0274
正社員	-10.0274
の中	-10.0281
父親	-10.0281
ようなので	-10.0282
異	-10.0284
故障	-10.0285
単純に	-10.0287
路	-10.0289
当たり	-10.0291
れた	-10.0293
意	-10.0295
注文	-10.0295
返す	-10.0295
さない	-10.03
関連	-10.0302
変わり	-10.0305
よりは	-10.0305
前後	-10.0306
ta	-10.0307
エネルギー	-10.0309
待ち	-10.031
⇒	-10.0317
全員	-10.0319
知って	-10.0327
当時	-10.0328
限界	-10.0332
be	-10.0336
64	-10.0348
特	-10.0358
を行う	-10.036
主人は	-10.0362
私の場合	-10.0363
do	-10.0369
歩	-10.0371
子供に	-10.0381
31	-10.0383
寂しい	-10.0402
要素	-10.0403
医者	-10.0403
忘れ	-10.0407
あげて	-10.0408
労働	-10.0408
と思うと	-10.0412
取る	-10.0412
及び	-10.0414
書く	-10.0414
出来ます	-10.0417
泣き	-10.0418
価値観	-10.042
今度は	-10.0425
生まれ	-10.0425
ri	-10.0427
死ぬ	-10.0433
ロック	-10.044
38	-10.0442
走	-10.0442
急	-10.0446
性能	-10.0448
のようです	-10.0453
主に	-10.0454
切って	-10.0455
とう	-10.0458
うち	-10.0459
はいけない	-10.0462
を考えています	-10.0462
鉄	-10.0468
冬	-10.0468
デジタル	-10.0469
いらっしゃる	-10.0474
相続	-10.0478
抜け	-10.0478
中です	-10.048
日は	-10.0482
対処	-10.0485
と言われる	-10.0488
張り	-10.0489
どこ	-10.049
できますか	-10.0494
構成	-10.0495
メッセージ	-10.0495
いなかった	-10.0496
辞める	-10.0496
設置	-10.0499
▁you	-10.05
行かない	-10.05
ってこと	-10.0502
決定	-10.0505
up	-10.0506
一年	-10.0508
のだから	-10.051
エッチ	-10.0512
深く	-10.0512
を使っています	-10.0515
新しく	-10.0523
があるのですが	-10.0524
のとき	-10.0525
本当にありがとうございました	-10.0525
容量	-10.0528
追い	-10.0529
お母さん	-10.0529
.1	-10.053
アドバイスお願いします	-10.0531
ab	-10.0531
両親	-10.0532
いける	-10.0534
抜き	-10.0536
指摘	-10.0537
太	-10.054
合わせ	-10.0545
位置	-10.0546
されたら	-10.0548
だと思いますよ	-10.0548
今も	-10.0549
であっても	-10.0549
でなく	-10.0551
言います	-10.0551
いるのか	-10.0552
マウス	-10.0556
以外は	-10.0556
経営	-10.0557
もうすぐ	-10.0558
回復	-10.0559
在	-10.0564
被害	-10.0566
ki	-10.0566
昼	-10.0572
ご存知の方	-10.0575
記述	-10.0575
自殺	-10.0578
▁ィ	-10.0581
になると思います	-10.0582
かどうかは	-10.0586
教	-10.0592
始めて	-10.0604
▁f	-10.0605
というより	-10.0606
離	-10.061
モード	-10.0611
こういった	-10.0613
軍	-10.0613
▁3	-10.0613
問題ない	-10.0614
初めての	-10.0616
なかったら	-10.0617
段	-10.0617
100%	-10.0627
かつ	-10.0633
電子	-10.0634
bb	-10.0634
になるのでしょうか	-10.0635
▁s	-10.0637
村	-10.0639
と考えて	-10.0642
動く	-10.0642
設計	-10.0645
{	-10.0648
精神的に	-10.0653
いただいた	-10.0657
払って	-10.0662
5000	-10.0664
をもって	-10.0666
高速	-10.0666
一般的な	-10.0673
関係ない	-10.0685
問	-10.0686
がわかりません	-10.0689
貴方が	-10.0694
車を	-10.0694
満	-10.0694
信号	-10.0705
付き合った	-10.0706
されていた	-10.0706
言葉を	-10.0708
みようと思います	-10.071
程度で	-10.0715
us	-10.0716
スタート	-10.0716
▁0	-10.0722
ならない	-10.0724
られません	-10.0725
▁as	-10.0727
君	-10.0729
でしょうし	-10.0729
通院	-10.0729
広	-10.0731
ますので	-10.0733
ゴミ	-10.0736
探して	-10.0736
アオ	-10.0737
色んな	-10.0738
ガン	-10.0739
接	-10.074
4%	-10.0741
と思いますか	-10.0743
男性と	-10.0744
際	-10.0745
速	-10.0745
業界	-10.0745
▁http	-10.0747
民	-10.0748
好	-10.0751
ァ	-10.0752
立て	-10.0754
兄	-10.0755
になりたい	-10.0756
決め	-10.0758
様々な	-10.0763
そのうち	-10.0764
姿	-10.0764
会社が	-10.0765
どっち	-10.0765
破	-10.0766
見える	-10.0767
言えない	-10.0769
払う	-10.077
スペック	-10.0775
ブラウザ	-10.0777
エアコン	-10.0778
リア	-10.0784
お願いいたします	-10.0787
状	-10.0793
するなら	-10.0793
慰謝料	-10.0794
変わらない	-10.0797
ェ	-10.0797
何で	-10.0799
2〜3	-10.08
くらいで	-10.0807
目を	-10.0809
おき	-10.081
殺	-10.0812
イイ	-10.0816
オン	-10.0817
送り	-10.0818
なのかな	-10.0818
原因は	-10.082
可能な	-10.0821
薄	-10.0827
したもの	-10.0827
権利	-10.083
ところです	-10.0837
スペース	-10.0837
を選ぶ	-10.0839
るのか	-10.084
みました	-10.0841
がありましたら	-10.0844
600	-10.0845
世	-10.0859
結論	-10.0866
利	-10.0867
@	-10.0868
入れる	-10.0872
無駄	-10.0877
ということを	-10.0877
意見を	-10.0878
風俗	-10.0878
ざ	-10.0878
の間に	-10.0879
センチ	-10.0879
一言	-10.0879
楽しみ	-10.0885
ッと	-10.089
資金	-10.0894
おらず	-10.0896
だとか	-10.0903
ライト	-10.0903
弟	-10.0903
はなく	-10.0905
引越し	-10.0906
せて	-10.0906
どれ	-10.0907
という意味	-10.0908
しく	-10.091
連絡を	-10.091
批判	-10.0912
新幹線	-10.0915
お父さん	-10.0917
風邪	-10.0923
いるのでしょうか	-10.0924
ゼロ	-10.0925
しろ	-10.0926
気持ちは	-10.093
わけで	-10.0931
好きです	-10.0934
てしまいました	-10.0942
先生に	-10.0948
本当	-10.095
心理	-10.0951
同時に	-10.0951
少々	-10.0968
pa	-10.0968
臭い	-10.0968
カン	-10.0971
こんなこと	-10.0974
▁is	-10.0975
イョ	-10.0976
その場合	-10.098
中古	-10.0983
そうですよね	-10.0985
一人暮らし	-10.0985
hd	-10.0987
主張	-10.0987
人たち	-10.0991
たいと思っています	-10.0995
平成	-10.0996
一般的に	-10.1002
弱い	-10.1008
殆ど	-10.1008
北海道	-10.101
ごとに	-10.101
みた	-10.101
私としては	-10.1014
so	-10.1014
最大	-10.1017
を入れ	-10.1026
優しく	-10.1027
li	-10.1027
玉	-10.1029
ルーター	-10.103
審査	-10.1035
サークル	-10.1036
年前に	-10.1036
人もいる	-10.1041
回数	-10.1043
謝罪	-10.1047
それぞれの	-10.1052
を取って	-10.1054
んだけど	-10.1055
ったら	-10.1056
なくなって	-10.1056
を受けた	-10.1061
要	-10.1063
理由で	-10.1065
苦しい	-10.1072
するような	-10.1073
をし	-10.1073
寝る	-10.1075
節	-10.1083
返して	-10.1088
ブラ	-10.1094
帰り	-10.1095
お客様	-10.1105
パス	-10.1115
するために	-10.1119
レンタル	-10.1122
アョ	-10.1125
■	-10.1131
を探して	-10.1134
▁x	-10.1139
最悪	-10.114
ホーム	-10.114
ないのに	-10.1142
。(1)	-10.1153
ツアー	-10.1154
----------------	-10.1158
かなぁ	-10.1163
今までの	-10.1165
漢字	-10.1174
全ての	-10.1178
端子	-10.118
してました	-10.1181
医療	-10.1181
心配です	-10.1181
いるのに	-10.1186
飛行機	-10.1188
頭が	-10.1188
いたします	-10.119
飛び	-10.1193
某	-10.1196
いつか	-10.1198
田舎	-10.1201
千	-10.1204
スピーカー	-10.1206
学校の	-10.1208
するのも	-10.1209
視	-10.1209
後で	-10.1213
飲み会	-10.1216
と言われた	-10.1217
詳しい方	-10.1217
絶	-10.122
輪	-10.1221
してくる	-10.1221
いき	-10.1221
直す	-10.1222
コンビニ	-10.1223
org	-10.1224
保育園	-10.1224
日本に	-10.1226
経過	-10.1227
める	-10.1231
してきました	-10.1233
旦那の	-10.1237
発売	-10.1239
わけではない	-10.1239
サーバ	-10.124
する場合	-10.1245
しやすい	-10.126
分野	-10.126
今月	-10.1261
お酒	-10.1263
もらい	-10.1266
いること	-10.1266
はとても	-10.1268
置き	-10.127
辺	-10.1271
ちゃ	-10.1277
に行き	-10.1278
方法で	-10.1284
お前	-10.1285
入る	-10.1286
と言えば	-10.1286
今後の	-10.1291
皆様の	-10.1297
留学	-10.1298
える	-10.1299
枠	-10.13
タイプの	-10.1301
去年	-10.1302
こちらで	-10.1302
くて	-10.1304
恐らく	-10.1306
ハードディスク	-10.1309
保障	-10.1311
ワン	-10.1312
八	-10.1313
会社は	-10.1315
考えられる	-10.1326
用意	-10.1328
(^^)	-10.1329
を使った	-10.133
証	-10.133
置いて	-10.1336
ロン	-10.1336
microsoft	-10.1342
もあるので	-10.1346
るのでしょうか	-10.136
adsl	-10.136
か月	-10.1366
車は	-10.137
オプション	-10.1372
!?	-10.1382
自体は	-10.1383
便利	-10.1391
反	-10.1392
ng	-10.1393
あくまでも	-10.1393
してない	-10.1393
お話	-10.1395
保険会社	-10.1396
年生	-10.1396
根拠	-10.1398
公開	-10.14
保	-10.1402
宿	-10.1403
たとえ	-10.1407
メールが	-10.1407
ようですね	-10.1411
お菓子	-10.1412
メイン	-10.1412
答えて	-10.142
こない	-10.1422
政治	-10.1424
消	-10.1425
文化	-10.1428
ai	-10.1439
被害者	-10.144
ませんが	-10.1444
がんばって	-10.1444
葉	-10.145
この先	-10.1452
友人が	-10.1453
省	-10.1454
も良い	-10.1456
信じて	-10.1457
を考えると	-10.1458
男は	-10.1459
だめ	-10.1459
合って	-10.1463
現金	-10.1463
建築	-10.1465
理想	-10.147
支払	-10.1471
の人が	-10.1471
わない	-10.1472
一体	-10.1473
search	-10.1474
うつ	-10.1475
トップ	-10.1476
こっち	-10.1476
帰	-10.1477
}	-10.1478
に対し	-10.1483
歩いて	-10.1484
子が	-10.1484
特定	-10.1485
なりません	-10.1485
..	-10.1488
じゃなくて	-10.1493
分かります	-10.1497
打	-10.1498
そのため	-10.1502
車検	-10.1505
イベント	-10.1506
を求める	-10.1507
発生	-10.1507
携帯電話	-10.1512
作った	-10.1514
残念ながら	-10.1514
正解	-10.1517
大事な	-10.1518
イヤ	-10.1518
する方法	-10.1518
その時に	-10.152
職場で	-10.1521
終	-10.1524
も無い	-10.1527
デジカメ	-10.1528
でないと	-10.1529
下記の	-10.1529
th	-10.1533
店舗	-10.1537
院	-10.1539
きり	-10.1539
子育て	-10.1539
したいと思っています	-10.154
をつける	-10.154
合わない	-10.1544
生活を	-10.1544
売	-10.1545
専用	-10.1546
有名	-10.1548
そういうこと	-10.1554
ドライバー	-10.1554
完了	-10.1557
会いたい	-10.1567
手順	-10.157
旅	-10.1572
んでしょう	-10.1574
探し	-10.1574
まって	-10.1575
歴史	-10.1576
思った	-10.1578
越	-10.1579
元の	-10.1584
=0	-10.1585
遊ぶ	-10.1587
合計	-10.16
資料	-10.1601
の為に	-10.1601
関西	-10.1604
手紙	-10.1608
空気	-10.1609
くれました	-10.1609
お互いの	-10.1612
建物	-10.1617
頂いた	-10.1622
持っている	-10.1624
真剣に	-10.1627
成功	-10.1629
セキュリティ	-10.1631
だと思って	-10.1633
捨て	-10.1635
好きで	-10.1635
食べ物	-10.164
なきゃ	-10.1645
宿泊	-10.1647
トン	-10.1647
アパート	-10.1649
具合	-10.165
母の	-10.1654
出た	-10.1656
うつ病	-10.1659
shi	-10.166
方を	-10.1668
the	-10.1678
るべき	-10.1678
歳です	-10.1679
に出	-10.168
人間の	-10.168
記	-10.1683
・・・」	-10.1683
);	-10.1686
ないですか	-10.1691
可能性があります	-10.1693
わかりました	-10.1701
のうち	-10.1704
させていただきます	-10.1705
担当者	-10.1708
なのは	-10.1711
自覚	-10.1718
クー	-10.1723
際に	-10.1725
残業	-10.1725
te	-10.1731
券	-10.1732
キーボード	-10.1732
▁̅	-10.1735
せめて	-10.174
やり方	-10.174
マー	-10.1743
しなければならない	-10.1749
十	-10.1751
is	-10.1754
▁<	-10.1758
ntt	-10.1758
好きな人	-10.1762
詐欺	-10.1762
られました	-10.1762
圧	-10.1763
バージョン	-10.1768
形で	-10.177
今では	-10.1776
があっても	-10.178
科目	-10.1782
オイル	-10.1782
短	-10.1784
何らかの	-10.1786
だけに	-10.1786
基礎	-10.1789
購入した	-10.1789
築	-10.1798
bc	-10.1809
en	-10.181
ここは	-10.1813
主人	-10.1821
考えている	-10.1821
人がいる	-10.1822
するのですが	-10.1827
床	-10.1828
高く	-10.1828
ための	-10.1828
攻撃	-10.1831
付き合っている	-10.1832
お友達	-10.1833
動か	-10.1833
彼氏は	-10.1834
秋	-10.1834
事務所	-10.1837
赤ちゃん	-10.1837
確定申告	-10.1838
ブロック	-10.1839
帯	-10.1839
といえば	-10.1842
なの	-10.1842
地球	-10.1843
できるのでしょうか	-10.1845
もん	-10.185
改めて	-10.185
ようになった	-10.1853
ソース	-10.1853
の内容	-10.1856
車両	-10.1858
靴	-10.1859
アリ	-10.1859
遊んで	-10.1863
しなかった	-10.1864
(__)	-10.1868
スタイル	-10.187
診断	-10.1873
構造	-10.1876
...)	-10.1877
学習	-10.1879
であった	-10.1892
中心	-10.1892
他人の	-10.1892
身体	-10.1892
んだと思います	-10.1892
走り	-10.1895
いいですね	-10.1897
がよく	-10.1901
ra	-10.1902
単	-10.1903
になっても	-10.1905
電話番号	-10.1907
さんと	-10.1909
安定	-10.1913
ぶり	-10.1915
いろいろと	-10.1917
目の	-10.1919
でしょうから	-10.192
発行	-10.1922
いませんでした	-10.1922
ものすごく	-10.1924
しなくても	-10.1925
ご意見を	-10.1929
辛いです	-10.1931
ごと	-10.1932
/~	-10.1932
なあ	-10.1935
ペン	-10.1935
するように	-10.1936
甘い	-10.1939
の大きさ	-10.1943
excel	-10.1944
電池	-10.1951
記事	-10.1951
男性に	-10.1952
▁モ	-10.1952
内容は	-10.1956
ィアゥ	-10.196
層	-10.1963
エクセル	-10.1965
次第	-10.1967
を書いて	-10.1968
スター	-10.1969
妻は	-10.1973
▁for	-10.1978
離れ	-10.1979
クレジットカード	-10.1981
分け	-10.1984
間違って	-10.1986
下に	-10.1986
ですからね	-10.1989
させた	-10.199
お腹	-10.1994
大切な	-10.1995
負	-10.1996
近	-10.1998
荷物	-10.1999
を使い	-10.2002
部署	-10.2008
これらの	-10.2008
お金が	-10.2013
をとる	-10.2014
思いを	-10.2017
クリア	-10.2018
クイ	-10.2025
孫	-10.2027
だけが	-10.2027
どのくらい	-10.203
みなさんは	-10.2036
妹	-10.2036
毎年	-10.2044
湯	-10.2045
以降	-10.2046
確率	-10.2046
みなさんの	-10.2049
質問者さんの	-10.205
してほしい	-10.2054
ではなくて	-10.2055
できなかった	-10.2057
をかけて	-10.2057
数値	-10.2063
の無い	-10.2064
の情報	-10.2066
自身	-10.2067
未来	-10.2069
くらいに	-10.2069
長期	-10.2069
違法	-10.207
有名な	-10.207
日本は	-10.2071
ゲ	-10.2073
キャラ	-10.2074
が強い	-10.2077
俺は	-10.2078
録音	-10.2082
外付け	-10.2085
キャ	-10.2086
事業	-10.2086
▁and	-10.2088
はじめて	-10.2093
親友	-10.2097
▁_)	-10.2098
これからも	-10.2098
ないから	-10.21
職場の	-10.2103
彼氏に	-10.2104
▁d	-10.2106
がなければ	-10.2108
公務員	-10.211
細	-10.2111
と言っていました	-10.2112
やる気	-10.2116
広告	-10.2122
交	-10.2131
返	-10.2134
暴力	-10.214
su	-10.2141
ご存知	-10.2145
ハード	-10.2149
つける	-10.215
順	-10.2152
素敵な	-10.2153
周り	-10.2155
雇用	-10.2158
定期	-10.2161
提案	-10.2164
人もいます	-10.2166
適用	-10.2168
優先	-10.2169
ける	-10.2171
年に	-10.2176
されると	-10.2178
後輩	-10.2178
単なる	-10.218
温度	-10.218
賃貸	-10.2182
頭に	-10.2184
普通は	-10.2186
修正	-10.2187
(1	-10.2188
sh	-10.219
小説	-10.2191
▁また	-10.2193
公園	-10.2195
word	-10.2202
近くの	-10.2202
不明	-10.2207
深い	-10.2212
プラ	-10.2212
55	-10.2213
どんなに	-10.2213
現場	-10.2214
意味で	-10.2215
を入れる	-10.2216
合わせて	-10.2221
誰でも	-10.2223
をすると	-10.2231
ほかの	-10.2231
ーー	-10.2232
えて	-10.2233
仕様	-10.2237
僕が	-10.2237
共	-10.2239
コントロール	-10.2246
かも知れませんが	-10.2248
時から	-10.2251
以上に	-10.2252
走って	-10.2253
夕方	-10.2256
ボール	-10.2261
似たような	-10.2261
使った	-10.2267
自体が	-10.2267
思っている	-10.2269
飲む	-10.227
テキスト	-10.2273
これだけ	-10.2277
出席	-10.2282
ちょうど	-10.2285
となって	-10.2286
カバー	-10.2287
遠く	-10.2287
がないと	-10.2291
(_	-10.2299
生きる	-10.2299
はありますが	-10.2301
はあるのでしょうか	-10.2303
教室	-10.2303
疲れて	-10.2306
けて	-10.2306
日本で	-10.2306
年目	-10.2312
手間	-10.2317
わけではありません	-10.2317
ぁ	-10.2319
自分自身	-10.2319
私の場合は	-10.2319
ようになる	-10.232
穴	-10.232
出てくる	-10.2321
はないでしょうか	-10.2321
がついて	-10.2321
添付	-10.2323
翌日	-10.2323
お茶	-10.2325
。(2)	-10.2328
長男	-10.233
方も	-10.2332
歴	-10.2332
宇宙	-10.2336
壊	-10.2338
押	-10.2343
付いて	-10.2343
けっこう	-10.2345
の間	-10.2345
鬱	-10.2349
できたら	-10.235
って事	-10.2357
してみてください	-10.236
屋さん	-10.236
プレイ	-10.237
出した	-10.2371
日付	-10.2372
sheet	-10.2374
クラブ	-10.2375
ことがある	-10.2377
簡単	-10.2378
若干	-10.238
って言う	-10.2382
バランス	-10.2383
充分	-10.2383
ちゃう	-10.2386
36	-10.2386
比較的	-10.2389
妻が	-10.239
ショック	-10.239
内部	-10.2392
悪く	-10.2401
友人の	-10.2403
やってる	-10.2403
チーム	-10.2409
者は	-10.2409
任	-10.2414
返し	-10.2419
教師	-10.242
排卵	-10.2421
ご質問	-10.2422
どれだけ	-10.2422
団体	-10.2422
最終	-10.2424
世代	-10.2428
格	-10.2436
人から	-10.2439
いただき	-10.2441
報道	-10.2444
教え	-10.2449
人には	-10.245
そちら	-10.2451
誤解	-10.2453
開始	-10.2453
有り	-10.2458
体が	-10.2459
自体	-10.246
口に	-10.2461
おいしい	-10.2462
政府	-10.2468
思考	-10.2471
カット	-10.2472
やめて	-10.2481
せば	-10.2486
に来て	-10.2487
感じで	-10.2489
事前に	-10.249
部屋に	-10.249
辞めて	-10.2494
あるのでしょうか	-10.2496
カラー	-10.2498
スイッチ	-10.2499
使え	-10.2502
もしかして	-10.2505
欄	-10.2505
汚れ	-10.2511
来ました	-10.2511
等を	-10.2513
終わって	-10.2516
でいい	-10.2521
をとって	-10.2524
ダウン	-10.2529
という言葉	-10.253
鳥	-10.2532
宮	-10.2532
アカ	-10.2533
子供も	-10.2533
ィイゥ	-10.2536
どちらか	-10.2536
外国人	-10.2539
チャンス	-10.2539
踏み	-10.254
大変な	-10.2542
6.	-10.2543
るのですが	-10.2545
放置	-10.2547
どういった	-10.2551
専門学校	-10.2556
材料	-10.2556
電圧	-10.256
旦那は	-10.2563
するもの	-10.2564
を使用しています	-10.2566
仕事も	-10.2573
モデム	-10.2575
ノー	-10.258
炎	-10.2581
服装	-10.2584
パスワード	-10.2584
良いのでしょうか	-10.2585
ジャ	-10.2588
こちらから	-10.2591
嫌だ	-10.2594
官	-10.2598
文句	-10.2599
をつけ	-10.2601
お願い致します	-10.2602
タン	-10.2605
配	-10.2606
聞きました	-10.2607
ニュース	-10.2607
に行きました	-10.2608
柄	-10.2608
ピアノ	-10.261
ばかりです	-10.261
を変えて	-10.261
体調	-10.2613
それなら	-10.2619
普段は	-10.262
アク	-10.2621
全国	-10.2622
最初	-10.2628
悲しい	-10.2629
国の	-10.263
ができない	-10.263
ョョョ	-10.2631
することが	-10.2631
情	-10.2632
サイトで	-10.2633
も含めて	-10.2635
師	-10.2635
「○○	-10.2635
写	-10.2638
いけ	-10.2639
解答	-10.2639
通知	-10.264
アンプ	-10.2641
ルータ	-10.2643
加	-10.2644
協力	-10.2646
私なら	-10.2647
出血	-10.2647
タクシー	-10.2648
ほどの	-10.2648
の仕事	-10.265
を聞いて	-10.265
皮	-10.2654
感じる	-10.2657
シャ	-10.2662
害	-10.2662
ルート	-10.2664
松	-10.2668
きつい	-10.2668
名古屋	-10.2673
事です	-10.2676
この前	-10.2682
外部	-10.2682
いただいて	-10.2683
生活費	-10.2686
自作	-10.2686
の状態	-10.2687
奥さん	-10.269
をよく	-10.2693
読	-10.2695
控除	-10.27
たしかに	-10.2701
マクロ	-10.2714
ほんとに	-10.2714
ないこと	-10.2715
気になります	-10.272
英	-10.2722
タイ	-10.2723
締め	-10.2724
いずれ	-10.2726
されたり	-10.2733
車が	-10.2734
共に	-10.2734
始めた	-10.2735
ないでしょうか	-10.2738
欲	-10.2739
オークション	-10.2739
ようになり	-10.274
布団	-10.2744
通常の	-10.2746
近所の	-10.2746
甘え	-10.2746
成績	-10.2747
が大きい	-10.275
タイム	-10.275
感染	-10.2753
いるようです	-10.2754
さんも	-10.2756
走行	-10.276
8%	-10.2762
てしまいます	-10.2763
鍵	-10.2767
ということでしょうか	-10.2767
霊	-10.2768
という話	-10.2768
暇	-10.277
野球	-10.2775
正しく	-10.2776
乗って	-10.2777
に相談	-10.2778
google	-10.2782
出来て	-10.2786
分割	-10.2789
車に	-10.279
なにも	-10.2791
▁ュ	-10.2793
ではありませんが	-10.2796
怪我	-10.2797
を見た	-10.2797
酷い	-10.2798
vista	-10.2816
ゴム	-10.282
選択肢	-10.282
パソコンに	-10.282
自由に	-10.2821
にとっては	-10.2821
誰が	-10.2829
工場	-10.2835
継続	-10.2836
左右	-10.2838
姿勢	-10.2839
見え	-10.2842
あえて	-10.2842
具	-10.2843
ho	-10.2845
現	-10.2851
かかります	-10.2851
とのことでした	-10.2855
アル	-10.2859
偏差値	-10.2863
覚えて	-10.2864
話は	-10.2865
完全	-10.2866
布	-10.2868
のお	-10.287
まさに	-10.2872
すべての	-10.2872
があったので	-10.2875
重要な	-10.2876
ことができる	-10.2877
綺麗	-10.2879
こともある	-10.2882
化学	-10.2883
夫に	-10.2884
行ける	-10.2885
キャンセル	-10.2886
オフ	-10.2889
財産	-10.2891
した事	-10.2897
ポート	-10.29
しゃ	-10.2903
が欲しい	-10.2904
ミルク	-10.2906
息	-10.2909
液	-10.2912
ゼ	-10.2913
酸	-10.2922
cgi	-10.2929
んじゃ	-10.2932
ライ	-10.2932
以外で	-10.2933
を変える	-10.2933
期限	-10.2937
人です	-10.2938
できませんでした	-10.2941
不動産	-10.2942
コスト	-10.2943
見せ	-10.2943
ヶ月の	-10.2949
因みに	-10.2952
65	-10.2955
一生懸命	-10.2956
タバコ	-10.2958
ことになりました	-10.2963
充電	-10.2965
レコーダー	-10.2967
とり	-10.2967
体の	-10.2969
悩んで	-10.2969
どこで	-10.2977
行こう	-10.2977
はもう	-10.2979
人達	-10.298
ハン	-10.2987
末	-10.2988
人間が	-10.299
のではないかと思います	-10.2991
実験	-10.2995
深	-10.2995
クリック	-10.2999
候補	-10.3
以前は	-10.3001
があるから	-10.3007
ところは	-10.3009
ありませんか	-10.3011
相性	-10.3011
状況です	-10.3015
のみで	-10.3016
たん	-10.3017
次第です	-10.3017
問い合わせ	-10.302
親は	-10.3021
決めて	-10.3022
れません	-10.3022
有る	-10.3023
くれません	-10.3028
友達の	-10.3029
el	-10.3031
して欲しい	-10.3043
(2	-10.3043
異性	-10.3044
早めに	-10.3045
材	-10.3046
専門家	-10.3048
イライラ	-10.3049
3000	-10.305
可能です	-10.3052
メールアドレス	-10.3053
比較	-10.3053
募集	-10.3054
きたり	-10.3056
の種類	-10.3057
は一切	-10.3057
考えた	-10.3058
放	-10.3059
していたのですが	-10.3061
質問者様の	-10.3063
ha	-10.3063
不可	-10.3064
出来た	-10.3064
としての	-10.3065
デメリット	-10.3066
とすると	-10.3071
遠い	-10.3073
つつ	-10.3075
フォーム	-10.3077
37	-10.3077
試合	-10.3078
挿入	-10.3079
重要	-10.3083
団	-10.3083
学校に	-10.3086
差別	-10.3088
だったと思います	-10.3089
そのもの	-10.3092
冗談	-10.3093
を使用して	-10.3094
フィ	-10.3095
定義	-10.3096
hi	-10.31
たかった	-10.3101
コミュニケーション	-10.3105
敵	-10.3107
等は	-10.3108
ギター	-10.311
いいよ	-10.311
有料	-10.3111
人間は	-10.3113
年前	-10.3121
33	-10.3125
複数の	-10.3126
指示	-10.3127
わかり	-10.313
ないのでしょうか	-10.3131
チケット	-10.3132
》	-10.3133
を求め	-10.3137
犯	-10.3139
帰宅	-10.3144
を持った	-10.3145
テープ	-10.3146
一つの	-10.3146
タブ	-10.3149
子は	-10.315
とかで	-10.3151
学校で	-10.316
sd	-10.316
釣り	-10.3161
体力	-10.3164
気味	-10.3164
よくわかりません	-10.3166
主人が	-10.3166
時間に	-10.3176
になってしまい	-10.3179
んじゃない	-10.3182
歩く	-10.3184
出勤	-10.3184
段階	-10.3185
アドバイスありがとうございます	-10.3188
匹	-10.3189
パック	-10.319
奥様	-10.3192
ファ	-10.3194
新品	-10.3195
んですかね	-10.3197
言っても	-10.3197
そんな事	-10.3199
住	-10.3201
必要があります	-10.3201
es	-10.3205
乳	-10.3205
短い	-10.3214
文書	-10.3215
入社	-10.3216
実際は	-10.3219
^2	-10.322
彼氏の	-10.322
の時は	-10.3223
名義	-10.3223
場合もあります	-10.3225
同じように	-10.3226
発表	-10.3227
せない	-10.3229
応援	-10.3229
父が	-10.323
機関	-10.3232
たった	-10.3238
ヲ	-10.3238
書かれている	-10.3238
マモ	-10.3238
見たい	-10.3239
履歴	-10.3241
辺り	-10.3243
000	-10.3243
栄養	-10.3244
の質問	-10.3244
lo	-10.3248
画	-10.3252
専業主婦	-10.3253
回答者	-10.3254
眼	-10.3256
怖いです	-10.3256
アウト	-10.3259
心に	-10.3263
返答	-10.3263
場合には	-10.3263
門	-10.3268
お勧めの	-10.3268
物は	-10.327
ックス	-10.3272
細かい	-10.3274
出品	-10.3275
してた	-10.3276
脂肪	-10.3276
バンド	-10.3276
跡	-10.3276
主義	-10.3277
追	-10.3277
イク	-10.328
nhk	-10.3289
確定	-10.3289
ませ	-10.329
そうなので	-10.3294
送る	-10.3294
が原因	-10.3296
を選んで	-10.3296
は無理	-10.3303
ff	-10.3304
年半	-10.3308
解消	-10.3309
どうやら	-10.3313
休日	-10.3313
マナー	-10.3314
例え	-10.3318
7%	-10.3321
6%	-10.3321
ますし	-10.3321
本来	-10.3323
再び	-10.3325
かと思いますが	-10.3326
の方の	-10.333
ケア	-10.3332
応募	-10.3334
日が	-10.3334
した後	-10.3335
ビジネス	-10.3335
3%	-10.334
=2	-10.334
転送	-10.334
念	-10.3343
フォーマット	-10.3343
最も	-10.3351
pdf	-10.3352
の上	-10.3353
ter	-10.3354
以前の	-10.3355
知人	-10.3357
pro	-10.3358
遠	-10.336
読む	-10.3361
体を	-10.3363
りました	-10.3363
あい	-10.3364
シーン	-10.3365
メモリー	-10.3366
連絡が	-10.3367
死んで	-10.3368
活	-10.3368
喜んで	-10.337
人数	-10.3372
インチ	-10.3374
を利用して	-10.3374
オーバー	-10.3376
一度も	-10.3376
ないのです	-10.3381
ていました	-10.3384
考えています	-10.3385
方が良い	-10.3386
参考にさせていただきます	-10.3388
室内	-10.3392
ワード	-10.3392
基本的には	-10.3404
そしたら	-10.3409
資産	-10.3409
ウィルス	-10.341
従	-10.341
百	-10.3415
写真を	-10.3415
調子	-10.3416
ーーー	-10.3416
但し	-10.3417
胃	-10.3418
を探す	-10.3422
記入	-10.3426
tu	-10.3427
なしで	-10.343
の意見	-10.3434
大手	-10.3435
邪魔	-10.3439
常	-10.344
男の	-10.3444
友達は	-10.3445
になれる	-10.345
警察に	-10.345
関東	-10.3452
給	-10.3452
辞書	-10.3453
と思ってしまいます	-10.3454
嫉妬	-10.3456
θ	-10.3456
いいです	-10.3458
音声	-10.3459
慣れ	-10.3465
昔は	-10.3465
職員	-10.3466
選挙	-10.3469
片	-10.347
起	-10.347
父の	-10.3471
搭載	-10.3475
どうせ	-10.3475
モン	-10.3476
ことができます	-10.3478
だいぶ	-10.3479
を利用	-10.3484
があれば教えてください	-10.3484
割引	-10.3485
他人に	-10.3486
ミニ	-10.3487
なかったり	-10.3488
かかって	-10.349
なんでも	-10.3491
バイ	-10.3491
降	-10.3494
時計	-10.3495
るのに	-10.3497
こともあり	-10.35
250	-10.3502
全額	-10.3504
洗濯	-10.3505
してくれます	-10.3505
巻き	-10.3506
沖縄	-10.3507
▁e	-10.3511
住んでいる	-10.3511
小学生	-10.3512
学歴	-10.3514
続け	-10.3517
お金は	-10.3519
居ます	-10.3519
ベース	-10.3522
ていない	-10.3523
寺	-10.3523
どうですか	-10.3524
ex	-10.3525
投資	-10.3526
画像を	-10.353
どれくらい	-10.3531
丁寧に	-10.3533
異なる	-10.3536
愚痴	-10.3536
知りません	-10.3537
深夜	-10.3541
規定	-10.3542
するのに	-10.3546
が入って	-10.3548
傾向	-10.3554
底	-10.3556
一旦	-10.3557
と思っていました	-10.3561
wa	-10.3561
しようと思います	-10.3563
力が	-10.3564
のが一番	-10.3566
マニュアル	-10.3571
受診	-10.3572
今現在	-10.3574
途中	-10.3575
修復	-10.3575
についても	-10.3577
たって	-10.358
経	-10.3583
縦	-10.3583
ご両親	-10.3584
はどうでしょうか	-10.3587
。2.	-10.3592
イオ	-10.3601
売って	-10.3602
陰	-10.3603
なかったのですが	-10.3605
参照	-10.3609
am	-10.3609
初期	-10.3609
;)	-10.361
がいる	-10.3612
の一つ	-10.3615
お返事	-10.3615
冷	-10.3617
城	-10.3618
かなりの	-10.3619
決	-10.3619
そこそこ	-10.3621
んじゃないか	-10.3622
凄い	-10.3624
その際	-10.3628
よろしく	-10.363
所で	-10.3634
ログイン	-10.3636
隣	-10.3638
内蔵	-10.3638
良	-10.3639
体に	-10.3641
好意	-10.3641
パーツ	-10.3642
自ら	-10.3643
その人の	-10.3645
苦	-10.3646
エン	-10.3648
全体	-10.3648
わからず	-10.3651
不思議	-10.3655
場所に	-10.3661
-2	-10.3663
白い	-10.3664
電波	-10.3665
34	-10.3665
ケーキ	-10.3668
になること	-10.3669
の一部	-10.367
広い	-10.3671
泣	-10.3673
as	-10.3677
きません	-10.3679
がとても	-10.3681
フェ	-10.3682
つらい	-10.3684
を選択	-10.3684
参考になる	-10.3687
することで	-10.3688
そこ	-10.3689
ご教授	-10.3695
のことで	-10.3696
ーク	-10.3699
パワー	-10.3699
込んだ	-10.3705
自然に	-10.3709
実際の	-10.3709
何回も	-10.3709
つもりで	-10.371
二つ	-10.3711
の中の	-10.3712
我慢して	-10.3712
メーカーの	-10.3714
ときの	-10.3715
(^^;	-10.3719
していれば	-10.372
なもの	-10.3721
は必要	-10.3722
しょうがない	-10.3722
姑	-10.3725
散歩	-10.3726
被	-10.3728
国内	-10.3731
日で	-10.3732
支給	-10.3735
起こ	-10.3738
感じます	-10.3738
した方が	-10.3743
上がり	-10.3745
女性です	-10.375
とすれば	-10.375
end	-10.3754
の言葉	-10.3756
んでしょうね	-10.3758
ビー	-10.3758
といいます	-10.3759
▁ア	-10.3761
隣の	-10.3763
算	-10.3763
理由を	-10.3766
出発	-10.3766
外で	-10.3768
忘れて	-10.3772
平日	-10.3774
受給	-10.3777
母に	-10.3781
申し訳ない	-10.3781
頂いて	-10.3783
年で	-10.3784
土日	-10.3786
勝	-10.3787
たくさんの	-10.3791
ペット	-10.3792
表記	-10.3795
言える	-10.3796
後から	-10.3799
ガラス	-10.3799
▁*	-10.3799
▁4	-10.38
避妊	-10.3805
精神科	-10.3809
届け	-10.381
おりました	-10.3812
アア	-10.3814
ではないと思います	-10.3815
と聞きました	-10.3815
参考までに	-10.3819
チン	-10.3822
このように	-10.3823
娘が	-10.3828
送	-10.3829
みたのですが	-10.3832
ようなら	-10.3833
そうすると	-10.3835
と言うのは	-10.3838
特定の	-10.3839
するのでしょうか	-10.3839
おきます	-10.3839
48	-10.384
食品	-10.3841
同士	-10.3844
筆	-10.3847
でなければ	-10.3848
移	-10.3848
積極的に	-10.385
la	-10.3851
に乗って	-10.3851
退	-10.3853
館	-10.3855
所得税	-10.3857
食い	-10.3859
の子	-10.3866
シャツ	-10.3866
物が	-10.3867
では無い	-10.3869
使い方	-10.3876
国家	-10.3883
雑	-10.3884
が出ます	-10.3888
学科	-10.3889
をクリック	-10.389
と言いました	-10.389
感想	-10.389
コレ	-10.3895
にしろ	-10.3896
なー	-10.3897
歩き	-10.3897
前回	-10.3899
草	-10.3902
ca	-10.3903
まとめて	-10.3907
いざ	-10.3909
人が多い	-10.3912
アプリケーション	-10.3912
違和感	-10.3913
クリスマス	-10.3913
していましたが	-10.3916
▁'	-10.3916
その人	-10.3916
ほんと	-10.392
もしも	-10.3921
いこう	-10.3921
きっかけ	-10.3924
領域	-10.3926
示	-10.3928
150	-10.3928
医	-10.3931
bios	-10.3932
がありますので	-10.3932
見えない	-10.3934
コーヒー	-10.3935
にあった	-10.3935
黙って	-10.3941
印	-10.3942
▁ノ	-10.3945
選	-10.3946
時間も	-10.3947
続く	-10.3949
があるのか	-10.3949
たくて	-10.3952
バレ	-10.3953
尿	-10.3954
自動的に	-10.3958
って感じ	-10.3962
ぐらいの	-10.3962
支援	-10.3962
あると思います	-10.3964
si	-10.3974
?>	-10.3976
にはならない	-10.3976
もありました	-10.3977
ds	-10.3981
プロバイダ	-10.3982
(4)	-10.3982
消費	-10.3983
余り	-10.3983
不具合	-10.3987
井	-10.3988
年代	-10.3989
回路	-10.3991
魅力	-10.3992
見られる	-10.3993
が出	-10.3996
分かり	-10.3996
とおり	-10.4001
コツ	-10.4001
こちらは	-10.4003
貴女	-10.4008
貴方は	-10.4008
が低い	-10.4009
シュ	-10.401
an	-10.4011
になったり	-10.4013
されること	-10.4015
来月	-10.4016
この質問	-10.4017
bs	-10.402
遅れ	-10.4021
メールは	-10.4021
落札	-10.4025
パソコンで	-10.4026
プリンタ	-10.4028
外見	-10.4029
小さく	-10.403
良いのか	-10.4031
怖くて	-10.4031
nec	-10.4031
support	-10.4031
寄せ	-10.4031
エア	-10.4032
アドバイスをお願いします	-10.4036
のでしたら	-10.4043
一週間	-10.4043
外出	-10.4044
噂	-10.4046
▁p	-10.4047
ya	-10.4047
するのか	-10.4048
からも	-10.4048
の人は	-10.4052
変わった	-10.4053
私立	-10.4055
どこまで	-10.4057
経験者	-10.4058
大型	-10.4061
あなたと	-10.4062
どうにか	-10.4064
素晴らしい	-10.4066
の上に	-10.407
detail	-10.4072
粉	-10.4073
...」	-10.4074
個人の	-10.4075
▁|	-10.408
のでしょうね	-10.4085
行う	-10.4086
が来る	-10.409
と言うこと	-10.4094
強制	-10.4094
案内	-10.4095
みたいですね	-10.4096
散	-10.4096
いかがでしょうか	-10.4098
谷	-10.4099
av	-10.4106
金利	-10.4109
義	-10.411
でしたので	-10.411
マシン	-10.4111
であること	-10.4112
をしていた	-10.4113
披露宴	-10.4114
負け	-10.4114
緊張	-10.4115
既婚者	-10.4116
遅く	-10.4117
だが	-10.4118
いませんが	-10.4119
不安で	-10.4123
となっています	-10.4125
診察	-10.4127
背景	-10.4131
出張	-10.4131
お祝い	-10.4132
ベスト	-10.4133
受	-10.4134
と言っています	-10.4135
・・・・・	-10.4139
の世界	-10.4139
。1.	-10.4141
勉強して	-10.4149
と思ったら	-10.4149
来ます	-10.4149
いませんか	-10.4153
性欲	-10.4155
だんだん	-10.4158
75	-10.4158
トレーニング	-10.4158
モニター	-10.4162
おられる	-10.4164
が出た	-10.4166
たびに	-10.417
教科書	-10.417
使わない	-10.4171
茶	-10.4174
結婚した	-10.4174
▁:	-10.4175
回目	-10.4175
旦那が	-10.4176
700	-10.4178
の原因	-10.4178
上司に	-10.4182
乾燥	-10.4183
余計に	-10.4184
表面	-10.4185
相手も	-10.4188
ちなみに私は	-10.4192
大切に	-10.4197
考えれば	-10.4198
年も	-10.4199
は必ず	-10.42
おすすめの	-10.4201
8.	-10.4202
引っ	-10.4202
と思える	-10.4203
別居	-10.4203
ナンバー	-10.4204
と思うのです	-10.4206
▁if	-10.4211
をみて	-10.4211
児	-10.4212
可能性がある	-10.4217
友人は	-10.4219
オーディオ	-10.4219
以前に	-10.4222
の結果	-10.4225
手が	-10.423
ごろ	-10.4232
軸	-10.4239
のほう	-10.424
よろしくおねがいします	-10.4242
駄目	-10.4243
の事を	-10.4247
ネタ	-10.4247
人物	-10.4249
切る	-10.4249
アレルギー	-10.4249
同意	-10.4251
と聞いて	-10.4254
苦痛	-10.426
日から	-10.4262
のことです	-10.4263
ly	-10.4264
ケー	-10.4265
情報が	-10.4266
用紙	-10.4266
詳細	-10.4268
ダイ	-10.4269
な人	-10.4269
それなりの	-10.427
新たに	-10.4271
アピール	-10.4272
結	-10.4272
歌詞	-10.4276
お客さん	-10.4276
進んで	-10.4279
▁チ	-10.4282
ボックス	-10.4282
ジェ	-10.4283
次回	-10.4285
してもらって	-10.4285
大学院	-10.4289
サイ	-10.4294
に変更	-10.4298
んじゃないでしょうか	-10.4301
√	-10.4303
の生活	-10.4305
しませんでした	-10.4307
によると	-10.4309
ノートパソコン	-10.431
助け	-10.4317
言動	-10.432
使えます	-10.4321
っぱなし	-10.4323
健康保険	-10.4325
ないか	-10.4326
工夫	-10.4329
いいでしょう	-10.433
組織	-10.433
守	-10.4333
my	-10.4334
配線	-10.4334
質問者さん	-10.434
閲覧	-10.4341
走る	-10.4342
その他の	-10.4344
電力	-10.4345
ッッ	-10.4347
せい	-10.4348
監督	-10.4352
元彼	-10.4352
といい	-10.4354
ことはない	-10.4356
私は今	-10.4357
夏休み	-10.436
死亡	-10.4365
彼女を	-10.4365
があるなら	-10.4371
精	-10.4371
頂き	-10.4372
の差	-10.4372
▁ヤ	-10.4372
していると	-10.4373
それまで	-10.4374
office	-10.438
難しく	-10.438
手に	-10.438
引っ越し	-10.438
出身	-10.4382
伝え	-10.4384
所に	-10.439
が有る	-10.4391
略	-10.4394
明るく	-10.4394
とても参考になりました	-10.4397
回答お願いします	-10.4399
レン	-10.44
銀	-10.4405
時も	-10.4405
いらない	-10.4406
関係の	-10.4409
方向に	-10.4409
届	-10.4414
大事に	-10.4418
あて	-10.442
てしまった	-10.442
ろうと	-10.4422
たりする	-10.4425
you	-10.4425
本日	-10.4427
もったいない	-10.4429
の部分	-10.4429
いると思います	-10.4431
笑って	-10.4431
いるのは	-10.4432
先月	-10.4433
ーン	-10.4435
転勤	-10.4436
教えていただきたいです	-10.4437
した時	-10.4443
言ってる	-10.4444
可能性もあります	-10.4444
が変わる	-10.4448
減	-10.4448
▁ャ	-10.4457
みたいなもの	-10.4458
ひとり	-10.4459
ふと	-10.4464
笑い	-10.4464
中央	-10.4467
新車	-10.4467
徐々に	-10.4469
支払う	-10.4477
推測	-10.4477
あなたも	-10.4478
なのですか	-10.448
ばっかり	-10.4481
95	-10.4482
見ると	-10.4483
一時	-10.4487
da	-10.4488
されても	-10.4491
気持ちで	-10.4492
言っている	-10.4493
はありませんでした	-10.4495
取り付け	-10.45
ss	-10.4504
周辺	-10.4506
しまうと	-10.4507
瞬間	-10.4508
母乳	-10.4513
思いました	-10.4513
になってしまった	-10.4519
しようと思っています	-10.4523
美人	-10.4523
カ月	-10.4525
相手と	-10.453
認定	-10.453
実現	-10.453
うれしいです	-10.4536
独立	-10.4539
京	-10.4539
項	-10.4541
int	-10.4543
中身	-10.4544
と思いますので	-10.4544
都市	-10.4544
はありませんか	-10.4548
シフト	-10.4549
メモ	-10.455
いいか	-10.455
違った	-10.455
9%	-10.4551
お母様	-10.4554
弁	-10.4555
核	-10.4556
好きだ	-10.4556
来週	-10.4557
始めました	-10.4559
祖母	-10.4561
クリ	-10.4562
レー	-10.4562
安心して	-10.4562
行きます	-10.4562
電流	-10.4566
いきました	-10.4566
知りたい	-10.4567
してくれた	-10.4568
装	-10.4573
120	-10.4574
分からず	-10.4574
感動	-10.4576
遠距離	-10.4579
しようか	-10.4579
のではないかと	-10.458
戸	-10.4581
進学	-10.4584
rom	-10.4589
ボード	-10.459
測定	-10.4596
という感じ	-10.4597
原発	-10.4598
に興味	-10.46
きたので	-10.4601
未だに	-10.4601
新築	-10.4601
がり	-10.4602
義母	-10.4606
仮	-10.4606
誤	-10.4608
落ち着いて	-10.4608
防	-10.4609
純正	-10.461
決まり	-10.4612
中には	-10.4614
見えて	-10.4616
の下	-10.4616
事があります	-10.4619
なんですけど	-10.4625
</	-10.4628
°	-10.4629
心を	-10.463
ce	-10.4631
なんでしょう	-10.4633
父は	-10.4634
英語の	-10.4634
1:	-10.4634
宜しくお願いいたします	-10.4635
などなど	-10.4635
わかりやすい	-10.4637
理系	-10.4637
wiki	-10.4641
用に	-10.4642
生まれた	-10.4643
にすると	-10.4643
▁この	-10.4643
菌	-10.4643
乱	-10.4647
が好き	-10.4649
といわれました	-10.4649
スタ	-10.4652
掲示板	-10.4655
付近	-10.4658
地震	-10.4662
まるで	-10.4662
本人が	-10.4667
先ほど	-10.4667
もらえない	-10.4668
結婚を	-10.4669
が必要な	-10.4672
悩んでいる	-10.4684
方法が	-10.4687
人がいます	-10.4687
を買った	-10.4687
youtube	-10.4692
私だけ	-10.4693
アップデート	-10.4694
安心しました	-10.4694
展開	-10.4695
したのは	-10.4696
▁xp	-10.4696
巻	-10.4697
こちらも	-10.47
data	-10.4702
技	-10.4702
にした	-10.4704
大きさ	-10.4705
tr	-10.4706
付けて	-10.471
課	-10.4715
提供	-10.4718
▁{	-10.4719
手当	-10.472
▁>	-10.472
コッッョョッッ	-10.4721
だろ	-10.4725
大好きな	-10.473
アプローチ	-10.4732
探	-10.4732
したとき	-10.4732
ji	-10.4733
度に	-10.4733
sin	-10.4734
ダメな	-10.4737
わかった	-10.4738
bo	-10.4739
のかも	-10.4739
いちいち	-10.4742
カロリー	-10.4742
アッ	-10.4746
いまいち	-10.4748
心療内科	-10.4751
もち	-10.4753
入手	-10.4754
尾	-10.4758
氏	-10.4758
まさか	-10.4758
代金	-10.4759
発音	-10.4759
迷っています	-10.4761
男です	-10.4761
log	-10.4761
生活保護	-10.4762
実感	-10.4763
冷静に	-10.4763
ファイルの	-10.477
fi	-10.4773
あまりに	-10.4773
報	-10.4773
求人	-10.4774
お世話になります	-10.4777
動いて	-10.4777
悪いこと	-10.4778
って思う	-10.4779
詰め	-10.4782
yo	-10.4782
1%	-10.4783
楽器	-10.4784
のでしょうが	-10.4784
et	-10.4786
してくれ	-10.4787
受けて	-10.4788
数年	-10.4789
kb	-10.4791
下手	-10.4797
知っています	-10.4798
いいですよ	-10.4801
が分かりません	-10.4802
の説明	-10.4803
のかもしれませんが	-10.4804
勉強になりました	-10.4804
老	-10.4807
ると思います	-10.481
もっとも	-10.4812
欠	-10.4812
尊敬	-10.4814
従業員	-10.4815
元カノ	-10.4816
円で	-10.4817
使えない	-10.4817
言われます	-10.4817
親族	-10.4818
無料で	-10.4819
彼とは	-10.482
に入った	-10.4821
倒	-10.4822
温	-10.4822
煮	-10.4823
先生が	-10.4826
せいか	-10.4828
39	-10.4834
が入っている	-10.4834
畳	-10.4835
言い訳	-10.4836
が多いので	-10.4839
しないように	-10.484
スタッフ	-10.4843
いつでも	-10.4844
気をつけ	-10.4845
尚	-10.4849
を作り	-10.485
。【	-10.485
方面	-10.4852
パソコンを	-10.4853
ィ笑ゥ	-10.4854
ちょっとした	-10.4855
一ヶ月	-10.4857
質問させていただきました	-10.4861
ケンカ	-10.4862
したいのです	-10.4864
ウイ	-10.4867
留	-10.4867
にしか	-10.4868
生きている	-10.4869
ビル	-10.4871
冷たい	-10.4876
おりません	-10.4877
解雇	-10.4877
の方から	-10.4879
を考える	-10.488
厳しく	-10.4886
話を聞いて	-10.4889
の際に	-10.4889
買い替え	-10.4893
仕	-10.4896
残って	-10.4899
もらいました	-10.4902
正直に	-10.4903
端末	-10.4905
の高い	-10.4912
店で	-10.4913
いつまでも	-10.4913
電話を	-10.4915
就	-10.4915
策	-10.4916
ないで	-10.4918
術	-10.4919
コー	-10.492
法人	-10.492
たこと	-10.4921
問題なく	-10.4922
アケ	-10.4923
個人的に	-10.4925
頑張ってください	-10.4926
もあって	-10.493
会員	-10.493
トロ	-10.493
どこかで	-10.4932
2,	-10.4933
思っています	-10.4935
裁	-10.4939
会社から	-10.4941
てしまい	-10.4941
ご教示	-10.4944
マザーボード	-10.4944
カップル	-10.4945
どちらの	-10.4946
ライブ	-10.4949
アナログ	-10.495
←	-10.4951
なければいけない	-10.4954
サッカー	-10.4954
格好	-10.4956
も多く	-10.4963
わがまま	-10.4968
借り	-10.4968
往復	-10.497
後日	-10.4972
いいですか	-10.4975
貸	-10.4976
と言う事	-10.4978
ランプ	-10.4989
われ	-10.499
経費	-10.4991
離れた	-10.4993
開く	-10.4993
アイコン	-10.5
を感じる	-10.5001
商	-10.5001
そうでない	-10.5006
使用している	-10.5011
怒って	-10.5012
国語	-10.5014
女友達	-10.5016
上がる	-10.5017
良くない	-10.5017
トリ	-10.5018
取れる	-10.502
用途	-10.5021
票	-10.5023
休	-10.5024
運営	-10.5024
news	-10.5025
etc	-10.5033
通話	-10.5034
あるのですが	-10.5034
ピー	-10.5034
乗る	-10.5035
型の	-10.5036
繰り返し	-10.5036
に入れる	-10.5037
僕も	-10.5038
なさ	-10.5042
面で	-10.5046
としか	-10.505
でもない	-10.505
サイン	-10.5053
何回か	-10.5056
product	-10.5057
は同じ	-10.5057
と言ったら	-10.5057
痩せ	-10.5059
頭痛	-10.5059
食べた	-10.5062
方法を教えてください	-10.5063
ップ	-10.5067
足を	-10.5068
とも思います	-10.5068
財布	-10.5069
気をつけて	-10.5069
なんと	-10.5074
外国	-10.5074
れます	-10.5076
9.	-10.5078
コンピュータ	-10.5078
るもの	-10.5081
イーー	-10.5083
科学	-10.5084
内容を	-10.5084
06	-10.5085
差し	-10.509
自分と	-10.5091
スキャン	-10.5091
",	-10.5093
わけですから	-10.5094
ウョ	-10.5101
ないんです	-10.5101
って言って	-10.5102
ねー	-10.5104
やすく	-10.5106
出来るだけ	-10.5108
を書く	-10.5108
を参考に	-10.5108
くん	-10.5109
レストラン	-10.5115
が全く	-10.5119
アウ	-10.5125
自立	-10.5128
寒い	-10.5128
gi	-10.5129
季節	-10.513
2007	-10.5133
程度です	-10.5135
どうでしょう	-10.514
すれば良い	-10.514
にもかかわらず	-10.5143
方々	-10.5146
同期	-10.5147
をインストール	-10.5148
を教えて	-10.5149
結局は	-10.5155
’	-10.5157
範囲で	-10.5157
頑張ります	-10.5158
ついた	-10.5159
メンバー	-10.516
どれも	-10.5161
その分	-10.5163
なったり	-10.5163
生産	-10.5167
が増えて	-10.5171
裁判所	-10.5172
した方がいい	-10.5172
しまっている	-10.5174
市場	-10.5177
テレビで	-10.5179
空き	-10.5179
依存	-10.518
男の人	-10.518
name	-10.518
ラジオ	-10.5181
とした	-10.5181
試して	-10.5189
ナー	-10.5191
代表	-10.5197
助かりました	-10.5197
効率	-10.5203
7.	-10.5209
ランド	-10.5209
刺激	-10.5214
家族の	-10.5214
こちらに	-10.5215
助	-10.5218
年度	-10.522
は全て	-10.522
嫌いな	-10.5223
ハッキリ	-10.5225
質問者様	-10.5229
読んだ	-10.5232
出ている	-10.5233
の際	-10.5234
人生を	-10.5236
きたら	-10.5239
ってる	-10.524
td	-10.5244
の人に	-10.5244
ときには	-10.5246
立って	-10.5252
相手から	-10.5254
text	-10.5255
だろうと	-10.5257
をしたり	-10.5259
薬を	-10.526
って思って	-10.526
サイトを	-10.5261
物質	-10.5262
周	-10.5262
代後半	-10.5263
それでは	-10.5264
かん	-10.5265
for	-10.5269
るから	-10.5274
づけ	-10.5281
経って	-10.5284
質問させていただきます	-10.5284
言葉で	-10.5288
彼女も	-10.529
開いて	-10.5292
についての	-10.5292
大変参考になりました	-10.5294
説得	-10.5294
代の	-10.5294
ベッド	-10.5294
▁me	-10.5295
該当	-10.5301
へ行く	-10.5305
使用する	-10.5305
弾	-10.5305
製造	-10.5308
得意	-10.5309
まえ	-10.5309
るのも	-10.5314
アンケート	-10.532
決めた	-10.532
行きました	-10.5322
知ってる	-10.5323
盤	-10.5325
はありませんが	-10.5335
されません	-10.5336
の色	-10.5337
プライド	-10.5338
に行きます	-10.534
なのでしょう	-10.534
旦那さん	-10.5345
香	-10.5347
ディスプレイ	-10.5348
他の人	-10.5349
ct	-10.5358
にはなりません	-10.5363
奥	-10.5363
じゃん	-10.5364
会え	-10.5365
載って	-10.5365
のサイト	-10.5369
と考える	-10.5369
あったら	-10.5371
)=	-10.5374
できるように	-10.5374
前は	-10.5375
増設	-10.5376
暮らし	-10.5378
無理に	-10.5379
少しは	-10.5383
週に	-10.5388
もよく	-10.5392
テーマ	-10.5392
防止	-10.5393
...?	-10.5394
今までは	-10.5396
ニー	-10.5399
容姿	-10.5402
ができて	-10.5402
と思っていたのですが	-10.5405
棒	-10.5405
を通して	-10.5406
とは思います	-10.5407
ようになって	-10.5408
大学で	-10.5412
笑顔	-10.5415
問題ありません	-10.5418
こんにちわ	-10.5418
上げて	-10.542
における	-10.5421
復縁	-10.5422
悩む	-10.5422
患者	-10.5423
市販の	-10.5424
ナビ	-10.5424
2003	-10.5426
質問者さんが	-10.5428
想い	-10.543
起きて	-10.5431
不要	-10.5432
考えます	-10.5434
まし	-10.5435
顔が	-10.5437
場合があります	-10.5438
スキル	-10.5439
動詞	-10.5441
に限らず	-10.5441
を引き	-10.5441
明るい	-10.5442
比	-10.5443
un	-10.5444
養	-10.5447
ver	-10.5447
事態	-10.5448
htmlhttp	-10.5448
第三者	-10.5451
は結構	-10.5452
ないもの	-10.5452
リカバリ	-10.5452
郵便局	-10.5454
しておく	-10.5456
っこ	-10.5462
アメリカの	-10.5465
カテゴリー	-10.5466
db	-10.5473
アンインストール	-10.5475
選び	-10.5475
学年	-10.5475
だけを	-10.5478
wikipedia	-10.5483
まり	-10.5483
水分	-10.5484
今更	-10.5486
関係を	-10.549
というのを	-10.5492
po	-10.5494
だと思っています	-10.5497
方式	-10.5497
であろう	-10.5498
答えは	-10.55
要は	-10.5505
になりますか	-10.5507
イカ	-10.5508
グラフ	-10.5509
個人情報	-10.551
画質	-10.551
一気に	-10.551
突	-10.5511
そこの	-10.5512
ためには	-10.5513
必要がある	-10.5516
メイク	-10.5519
両親に	-10.552
iphone	-10.5521
至	-10.5523
再インストール	-10.5524
自分なりに	-10.5526
友人と	-10.5526
の通り	-10.5529
来ない	-10.5529
造	-10.553
99	-10.5533
生まれて	-10.5535
無効	-10.5535
ベル	-10.5539
身内	-10.5542
コッッョョョッッ	-10.5542
嫌です	-10.5543
ることは	-10.5544
だとしたら	-10.5545
にあります	-10.5546
に行きたい	-10.5555
体質	-10.5557
伸び	-10.5557
方で	-10.5557
復元	-10.556
top	-10.5561
キャリア	-10.5561
▁テ	-10.5561
見ている	-10.5562
を探	-10.5566
クラ	-10.5571
mt	-10.5574
正常	-10.5574
よいのでしょうか	-10.5577
るなら	-10.5578
戻り	-10.5578
大学に	-10.5579
と思っていた	-10.5579
食事を	-10.5581
行け	-10.5582
かわいそう	-10.5586
横浜	-10.5586
道具	-10.5586
助かります	-10.5589
07	-10.559
加工	-10.5592
¥	-10.5595
桁	-10.5595
店長	-10.5596
スーツ	-10.5597
育てて	-10.5599
はできません	-10.5601
発送	-10.5601
返事が	-10.5602
世間	-10.5607
amazon	-10.5607
が付いて	-10.5609
怒る	-10.5614
回って	-10.5614
するという	-10.5615
を使用	-10.5616
さが	-10.5616
洋	-10.5617
旦那に	-10.5617
1〜2	-10.5618
とは違う	-10.5619
活用	-10.5619
かも知れない	-10.562
と思うんですが	-10.5621
親子	-10.5622
圧縮	-10.5624
の流れ	-10.5624
言葉が	-10.5625
祖父	-10.5627
るだけ	-10.5629
燃費	-10.5629
以前から	-10.5631
遊びに	-10.5631
が出てくる	-10.5632
英文	-10.5633
絞	-10.5636
女です	-10.5639
べきでしょうか	-10.5639
カラオケ	-10.564
の支払い	-10.5642
部分が	-10.5642
意味が	-10.5644
したがって	-10.5652
ステ	-10.5656
くれている	-10.566
頼り	-10.5665
しまうので	-10.5665
の数	-10.5666
と言われています	-10.5672
カレー	-10.5676
聞きたい	-10.5676
滅	-10.5677
治る	-10.5678
はしません	-10.5678
決断	-10.5683
教授	-10.5685
後ろ	-10.5688
坂	-10.5688
フランス	-10.5688
人それぞれ	-10.569
ヲス	-10.569
ところを	-10.5692
テン	-10.5695
一緒	-10.5696
まとめ	-10.5697
ガー	-10.5697
ブルー	-10.5698
文字列	-10.5702
kotaeru	-10.5702
奪	-10.5703
もらいたい	-10.5704
設備	-10.5706
という感じです	-10.5712
しね	-10.5714
状況で	-10.5714
理由が	-10.5715
は何ですか	-10.5716
ご指摘	-10.5717
ar	-10.5717
最後まで	-10.5718
わたしの	-10.572
少なく	-10.5721
ああ	-10.5722
適当に	-10.5726
不便	-10.5727
最近では	-10.573
その場で	-10.5731
夫と	-10.5732
何だか	-10.5734
アキ	-10.5735
▁[	-10.5737
物理	-10.5737
性の	-10.5739
になりません	-10.574
通って	-10.5742
同一	-10.5743
連続	-10.5744
なこと	-10.5746
恐れ	-10.5747
だけなら	-10.5749
工	-10.575
英語で	-10.5752
イエ	-10.5755
地元の	-10.5758
不幸	-10.5758
が出来ない	-10.5758
ありがたいです	-10.5759
/%	-10.576
冷蔵庫	-10.5762
info	-10.5764
もう一つ	-10.5765
ないでしょう	-10.5765
水を	-10.5766
マスコミ	-10.5767
場所で	-10.5769
意外と	-10.5772
一杯	-10.5773
だろうし	-10.5775
ダー	-10.5776
(^	-10.5777
福祉	-10.5777
気持ち悪い	-10.5777
ッド	-10.5778
をしても	-10.5778
の表示	-10.5779
ほうが良い	-10.5787
そうですか	-10.5788
隠	-10.579
できないので	-10.5792
デバイス	-10.5792
評判	-10.5794
あげたい	-10.5795
生物	-10.5797
頃に	-10.5798
▁5	-10.5798
後者	-10.5801
成分	-10.5803
しっかりと	-10.5803
偶然	-10.5803
の対象	-10.5805
重視	-10.5811
ここの	-10.5812
おけば	-10.5812
パンツ	-10.5813
特別な	-10.5813
解除	-10.5814
任せ	-10.5815
素材	-10.5815
直し	-10.5816
関	-10.5819
日本では	-10.5819
ありませんでした	-10.582
が多いです	-10.5822
障害者	-10.5823
49	-10.5825
密	-10.5825
入った	-10.5826
だらけ	-10.5827
自分では	-10.5828
規制	-10.5829
踏	-10.5831
右クリック	-10.5832
再婚	-10.5832
なっている	-10.5832
ってありますか	-10.5834
この間	-10.5835
質問者	-10.5836
内科	-10.5837
妻に	-10.584
鍋	-10.5847
お教え	-10.5847
ついでに	-10.5848
金属	-10.5848
の知識	-10.585
らしいのですが	-10.5851
と感じる	-10.5852
出てきます	-10.5853
頭を	-10.5854
編	-10.5856
▁t	-10.5856
上がって	-10.5859
にも関わらず	-10.5863
困ってます	-10.5864
幸せな	-10.5864
無理です	-10.5864
良いでしょう	-10.5865
マヒ	-10.5866
でしか	-10.5867
みたいと思います	-10.5868
のことは	-10.5869
無かった	-10.5871
がかなり	-10.5874
契約書	-10.5875
有利	-10.5875
娘の	-10.5876
言わ	-10.5876
界	-10.5877
心から	-10.5878
似た	-10.5879
補	-10.588
時間帯	-10.5881
した時に	-10.5882
というところ	-10.5882
液晶	-10.5883
事項	-10.5883
微	-10.5884
仏	-10.5885
コマンド	-10.5885
本人に	-10.5889
初めまして	-10.5889
札幌	-10.5895
66	-10.5896
に入り	-10.5898
換え	-10.5899
とある	-10.5901
▁be	-10.5902
怪しい	-10.5902
理論	-10.5905
市内	-10.5906
登記	-10.5906
売却	-10.5907
mail	-10.5907
初心者です	-10.591
相場	-10.5912
痛く	-10.5912
。●	-10.5915
持つ	-10.5918
の位置	-10.5919
ッシュ	-10.592
前提	-10.5923
ヒット	-10.5924
α	-10.5925
をします	-10.5926
▁ミ	-10.5927
ブラック	-10.5929
完成	-10.5937
迫	-10.5938
隠し	-10.594
なくなってしまいました	-10.5941
がいます	-10.5942
撃	-10.5942
年くらい	-10.5944
症状が	-10.5945
規格	-10.595
するべき	-10.595
`	-10.5953
みましたが	-10.5959
何度	-10.5961
ザー	-10.5961
自慢	-10.5961
交通費	-10.5967
入金	-10.5968
役所	-10.5968
クロ	-10.5971
ti	-10.5974
は難しい	-10.5974
をすれば	-10.5975
演奏	-10.5976
いますので	-10.5981
二人の	-10.5983
プリンター	-10.5984
ブック	-10.5986
主人に	-10.5991
良いです	-10.5991
アルバム	-10.5991
ある意味	-10.5995
うん	-10.5996
誘い	-10.5999
が好きです	-10.6008
年後	-10.6008
まれ	-10.6012
man	-10.6014
刺	-10.6019
ネトト	-10.6021
が同じ	-10.6022
")	-10.6027
狭い	-10.6027
著作権	-10.6034
上から	-10.6037
ではないです	-10.6038
そこは	-10.6039
言ったら	-10.6042
内容が	-10.6043
その場	-10.6052
ni	-10.6055
庁	-10.6055
書いてある	-10.6055
午後	-10.6056
クリーム	-10.6057
ジャンル	-10.6057
(>_<)	-10.6058
意思	-10.606
こちらが	-10.6062
集団	-10.6063
日常	-10.6063
要するに	-10.6064
set	-10.6066
44	-10.6069
爪	-10.6072
所有	-10.6073
▁g	-10.6075
名詞	-10.6075
下げ	-10.6076
職種	-10.6079
私たち	-10.6082
できること	-10.6082
br	-10.6085
正規	-10.6088
なのですね	-10.6093
がでて	-10.6094
パチンコ	-10.6094
イギリス	-10.6095
チョコ	-10.6095
米国	-10.6096
質問文	-10.6096
01	-10.6098
ドイツ	-10.6098
戻	-10.61
厚	-10.61
余	-10.6101
ation	-10.6101
何故か	-10.6103
.2	-10.6104
連れ	-10.6105
綺麗に	-10.6109
低下	-10.6109
バン	-10.611
不良	-10.611
と同時に	-10.611
亡くなった	-10.6113
sex	-10.6113
だね	-10.6116
レジ	-10.6116
あきらめ	-10.6124
部分を	-10.6126
場所は	-10.6129
寄り	-10.6129
ないのか	-10.613
ここから	-10.6131
風呂	-10.6133
過ごす	-10.6136
会った	-10.6137
者に	-10.6138
本人は	-10.6139
list	-10.614
苦笑	-10.6148
汁	-10.6149
〜〜	-10.6152
金を	-10.6156
向	-10.6158
レベルの	-10.6159
の良い	-10.6162
だからこそ	-10.6162
バッグ	-10.6163
られたら	-10.6163
昼間	-10.6163
次の日	-10.6164
乗り換え	-10.6164
ご主人	-10.6164
の先生	-10.6164
駐車	-10.6169
羽	-10.6173
住む	-10.6173
に向かって	-10.6173
のところ	-10.6173
伝	-10.6174
はよく	-10.6175
しないといけない	-10.6176
導入	-10.6179
一瞬	-10.6179
張	-10.6179
シン	-10.618
知る	-10.6183
とのことです	-10.6184
空間	-10.6185
item	-10.6188
リミ	-10.6192
はないと思います	-10.6192
泊まり	-10.6192
を確認	-10.6194
力を	-10.6195
なんですよね	-10.6197
部屋の	-10.6198
▁&	-10.6199
泣く	-10.6201
それ以上	-10.6202
検	-10.6202
画面が	-10.6204
あなたを	-10.6204
ワーク	-10.6211
エリア	-10.6212
トラ	-10.6212
ソフトは	-10.6212
質問します	-10.6218
なんだから	-10.6218
建	-10.6223
続き	-10.6223
現代	-10.6226
砂	-10.6227
を使っている	-10.6229
』『	-10.623
かり	-10.6231
未満	-10.6233
息子が	-10.6236
asp	-10.6238
返事を	-10.6238
どころか	-10.6239
復帰	-10.6242
ipod	-10.6242
行動を	-10.6244
そうだ	-10.6246
万円の	-10.6247
願います	-10.6247
に行こう	-10.6253
養育費	-10.6253
わけではなく	-10.6253
同じく	-10.6257
いなくて	-10.626
玄関	-10.626
ティー	-10.626
無事	-10.6261
申し込み	-10.6261
tsu	-10.6261
先生は	-10.6262
危ない	-10.6263
年ほど	-10.6263
cs	-10.6267
吸	-10.6267
見積もり	-10.6272
の写真	-10.6272
たくありません	-10.6272
無職	-10.6275
ボーナス	-10.6275
も多い	-10.6275
づらい	-10.6276
に参加	-10.6279
諦めて	-10.628
47	-10.6281
少年	-10.6281
まわり	-10.6286
とは思って	-10.6286
都内	-10.6289
></	-10.6291
滞在	-10.6291
に乗る	-10.6291
表示される	-10.6294
意志	-10.6295
保管	-10.6301
援助	-10.6302
きましたが	-10.6302
うるさい	-10.6304
なければなりません	-10.6305
社会保険	-10.6308
日数	-10.6308
支え	-10.6312
products	-10.6312
聞いても	-10.6315
的なもの	-10.6315
まい	-10.6315
若	-10.6315
訪問	-10.6316
select	-10.6318
その中で	-10.6318
;;	-10.6321
当時の	-10.6322
地元	-10.6323
かす	-10.6323
box	-10.6325
をしない	-10.6328
ソー	-10.6328
気にしない	-10.6331
数回	-10.6335
りして	-10.6339
図書館	-10.6342
男友達	-10.6343
というと	-10.6344
んじゃないかな	-10.6349
はできない	-10.635
気を	-10.635
はじめ	-10.6352
ないですよね	-10.6353
サゥ	-10.6358
くださいね	-10.6359
建て	-10.6359
課税	-10.636
ごく	-10.6361
▁m	-10.6361
困って	-10.6361
幸い	-10.6362
部分は	-10.6363
効	-10.6363
主婦	-10.6365
cl	-10.6365
わけじゃない	-10.6368
カル	-10.6371
に入れ	-10.6371
したく	-10.6374
経緯	-10.6374
ビール	-10.6374
をお	-10.6375
をやって	-10.6375
file	-10.6379
総合	-10.6382
誰かに	-10.6383
あんな	-10.6383
適	-10.6387
本気	-10.6387
分析	-10.6389
針	-10.6389
ガソリン	-10.639
断る	-10.6391
色の	-10.6391
家族に	-10.6392
良いのですが	-10.6393
しているのでしょうか	-10.6393
説明書	-10.6395
bit	-10.6397
じっくり	-10.6399
を買い	-10.64
はもちろん	-10.64
洗い	-10.64
って思います	-10.6403
いるから	-10.6404
切り替え	-10.6406
大好き	-10.6407
化粧	-10.6407
および	-10.6408
矛盾	-10.6408
していたら	-10.641
だと思いますか	-10.6411
を付けて	-10.6412
何処	-10.6414
手で	-10.6415
▁l	-10.6418
年上	-10.6421
いいな	-10.6422
プリント	-10.6422
勝ち	-10.6423
処方	-10.6425
彼女から	-10.6426
の可能性	-10.6427
式の	-10.6429
突き	-10.6429
家を	-10.643
その人は	-10.6431
発見	-10.6433
しまったので	-10.6433
プレーヤー	-10.6434
を感じ	-10.6434
ティング	-10.6437
ディーラー	-10.6439
日中	-10.6441
実際には	-10.6443
>>	-10.6443
どうなんでしょうか	-10.6443
薄い	-10.6444
じゃないと	-10.6444
サブ	-10.6444
をかける	-10.6446
何かの	-10.6449
子の	-10.6453
べきです	-10.6453
子供たち	-10.6454
脚	-10.6455
正常に	-10.6458
しまったり	-10.6461
もあれば	-10.6463
を大切に	-10.6464
マッサージ	-10.6464
働いている	-10.6466
よー	-10.6467
消費税	-10.6468
想定	-10.6469
やらない	-10.6471
ではありますが	-10.6472
はちょっと	-10.6474
そういう人	-10.6477
はいかがでしょうか	-10.6478
貴重な	-10.648
◎	-10.648
誰にも	-10.6482
始める	-10.6482
は何も	-10.6482
クラスの	-10.6482
みても	-10.6483
と同じように	-10.6483
を知って	-10.6484
申し訳ございません	-10.6487
していたので	-10.649
88	-10.6491
ブレ	-10.6494
遅れて	-10.6495
片付け	-10.6498
がありますか	-10.65
妻と	-10.6501
▁h	-10.6502
ファッション	-10.6502
上下	-10.6502
page	-10.6503
を購入しました	-10.6505
考えたら	-10.6506
習慣	-10.6506
でしょうけど	-10.6507
watch	-10.6508
耳に	-10.6509
かえ	-10.651
all	-10.6511
したほうがいい	-10.6515
先週	-10.6515
不可能	-10.6516
何となく	-10.6518
・・・?	-10.6519
減ら	-10.6521
くなる	-10.6522
りします	-10.6522
男が	-10.6523
緑	-10.6525
会計	-10.6527
おはようございます	-10.6527
カラ	-10.6533
人って	-10.6534
楽天	-10.6536
さっそく	-10.654
▁re	-10.6541
ハンドル	-10.6541
距離を	-10.6542
落ちて	-10.6543
いいでしょうか	-10.6544
フォント	-10.6544
交流	-10.655
サイド	-10.6555
ほかに	-10.6559
どの程度	-10.6561
チョ	-10.6562
恐怖	-10.6566
!!」	-10.6567
dv	-10.6569
ポン	-10.6569
オススメの	-10.657
まずい	-10.6574
貰う	-10.6574
ール	-10.6577
が出来て	-10.6579
影	-10.6581
できるか	-10.6583
ことにしました	-10.6586
受付	-10.6587
務	-10.6588
質問しました	-10.6588
仕方がない	-10.659
原付	-10.6592
blog	-10.6594
困難	-10.6595
変わります	-10.6597
言いました	-10.6601
主人公	-10.6601
は絶対に	-10.6602
飯	-10.6604
がほとんど	-10.6605
そのとき	-10.6606
駅から	-10.6607
理解できない	-10.6608
感じて	-10.661
最後	-10.6611
以内	-10.6612
厚生年金	-10.6614
外に	-10.6614
証明書	-10.6616
足りない	-10.6616
女性の方	-10.6616
されていました	-10.6618
▁n	-10.6622
装置	-10.6624
▁ト	-10.6625
はダメ	-10.6628
止めて	-10.6629
知りませんでした	-10.663
生理が	-10.6631
起き	-10.6632
参考になります	-10.6632
把握	-10.6633
^)	-10.6635
製の	-10.6636
してきて	-10.6637
荒	-10.6637
れば良い	-10.6638
云々	-10.6641
接触	-10.6642
原因が	-10.6643
してくれて	-10.6645
パソコンは	-10.6647
話し合って	-10.6648
じゃなく	-10.6648
片方	-10.6648
って何	-10.665
調停	-10.6651
フレーム	-10.6653
住民税	-10.6654
万が一	-10.6654
をしていました	-10.6656
みたいですが	-10.6658
なかったです	-10.6658
かける	-10.6659
脈	-10.6661
っちゃ	-10.6663
彼には	-10.6664
フリーソフト	-10.6664
ということになります	-10.6666
止まって	-10.6672
をしていて	-10.6673
側が	-10.6675
と書いて	-10.6676
かえって	-10.6677
大抵	-10.6678
森	-10.6678
アルコール	-10.6679
ということが	-10.668
マシ	-10.6682
訂正	-10.6682
出来ました	-10.6683
そのあと	-10.6684
乗せ	-10.6684
かね	-10.6685
人目	-10.6685
の時間	-10.6686
汚い	-10.6687
苦手	-10.6689
みれば	-10.6691
になれ	-10.6691
北朝鮮	-10.6693
るし	-10.6694
様の	-10.6695
これに	-10.6695
社の	-10.6696
人格	-10.6699
dl	-10.6699
03	-10.67
今後も	-10.6703
でしたね	-10.6703
かかった	-10.6706
ような感じ	-10.6706
とかは	-10.6706
じゃないか	-10.6707
と思えば	-10.6708
したりする	-10.6708
癌	-10.6713
できますが	-10.6716
に戻	-10.6716
派遣会社	-10.6719
chi	-10.6721
のための	-10.6721
週末	-10.6721
という考え	-10.6723
と言うと	-10.6724
を求めて	-10.6726
困ります	-10.6727
点数	-10.6728
子どもが	-10.6729
眠	-10.6731
能	-10.6731
成立	-10.6734
埋め	-10.6734
しているのか	-10.6734
餌	-10.6736
がち	-10.6742
高級	-10.6743
位の	-10.6748
04	-10.6749
を利用する	-10.6749
変え	-10.675
膝	-10.6753
文法	-10.6754
の前で	-10.6755
自宅で	-10.6756
bu	-10.676
六	-10.6764
同級生	-10.6765
錠	-10.6766
場合に	-10.6766
だという	-10.6767
られています	-10.6768
像	-10.6769
中学校	-10.677
っぽく	-10.6775
ヨーロッパ	-10.6775
先生の	-10.6776
ken	-10.6776
党	-10.6778
説明して	-10.6779
ge	-10.6783
送った	-10.6783
▁私は	-10.6784
セン	-10.6786
にくく	-10.679
致します	-10.679
なれば	-10.6796
▁ナ	-10.6796
みな	-10.6797
付く	-10.6799
もあった	-10.68
してしまって	-10.6802
参考書	-10.6803
になってる	-10.6804
しますので	-10.6806
に影響	-10.6807
が無く	-10.6808
分くらい	-10.6811
お考え	-10.6811
#2	-10.6812
ありえない	-10.6813
聞いたら	-10.6814
マルチ	-10.6815
筋トレ	-10.6816
つまらない	-10.6817
お昼	-10.6818
54	-10.6819
の様な	-10.6821
分かった	-10.6821
質問者様が	-10.6822
の女性	-10.6822
改	-10.6825
慣れて	-10.6825
無理な	-10.6825
津	-10.6826
テト	-10.6826
メールの	-10.6829
長年	-10.6836
出ます	-10.6836
japan	-10.6836
回答よろしくお願いします	-10.6838
水道	-10.6838
ート	-10.6839
旦那様	-10.6844
暗	-10.6844
使っていた	-10.6844
分かりました	-10.6845
ではないのですが	-10.6847
でもいいので	-10.6848
windowsxp	-10.6849
コンセント	-10.685
訴え	-10.685
売上	-10.685
してみる	-10.6856
ともに	-10.686
となりました	-10.6862
トラック	-10.6862
この人	-10.6863
漏れ	-10.6863
平気で	-10.6865
があると思います	-10.6866
判定	-10.6875
伝える	-10.6875
優	-10.6877
課題	-10.6877
46	-10.6879
過失	-10.6879
降り	-10.6881
π	-10.6885
の方も	-10.6887
整備	-10.6888
が好きで	-10.6888
アドバイスありがとうございました	-10.689
塗装	-10.689
子宮	-10.689
してもらった	-10.6892
ram	-10.6893
一覧	-10.6894
りません	-10.6894
まともに	-10.6897
礼	-10.6898
政権	-10.6898
義父	-10.6898
卒	-10.69
kan	-10.6901
東大	-10.6902
意図	-10.6903
時間の	-10.6903
もあまり	-10.6904
ことが多い	-10.6905
見れる	-10.6905
当て	-10.6906
昭和	-10.6911
たりして	-10.6912
鏡	-10.6912
していても	-10.6913
を購入して	-10.6913
会えない	-10.6914
と思っております	-10.6919
あたし	-10.6919
店員	-10.6921
基	-10.6922
共通	-10.6923
ru	-10.6927
既婚	-10.6929
なに	-10.693
ではなかった	-10.693
56	-10.693
一部の	-10.6931
次は	-10.6932
賞	-10.6932
不正	-10.6936
このままでは	-10.6936
憧れ	-10.694
とかいう	-10.6942
ではないか	-10.6943
接して	-10.6948
結婚したい	-10.6949
スカート	-10.6951
受ける	-10.6955
休んで	-10.6955
がつく	-10.6955
《	-10.6959
題	-10.6959
順番	-10.6959
糸	-10.6961
がかかる	-10.6962
よいと思います	-10.6962
オンライン	-10.6963
ことになる	-10.6963
の物	-10.6964
その間	-10.6964
どういうこと	-10.6964
きれい	-10.6966
トヨト	-10.6968
ミリ	-10.697
に比べて	-10.697
後半	-10.6971
){	-10.6972
ブル	-10.6976
どこが	-10.698
出ない	-10.6982
2/	-10.6983
oo	-10.6983
費用は	-10.6984
る人	-10.6984
クレーム	-10.6984
理解できません	-10.6986
フォ	-10.6986
大事	-10.6986
モテ	-10.6988
」→「	-10.6989
夕食	-10.6992
誘う	-10.6993
とのことで	-10.7
間の	-10.7
が悪かった	-10.7001
た場合	-10.7003
をかけ	-10.7003
運用	-10.7003
per	-10.7004
これからは	-10.7005
ロード	-10.7005
好きだった	-10.7006
wi	-10.7007
決まって	-10.7007
成人	-10.7009
チャンネル	-10.7009
ぇ	-10.701
渡す	-10.7012
様です	-10.7014
の影響	-10.7016
以来	-10.7016
黄	-10.7016
確認して	-10.7022
ことができません	-10.7023
アーティスト	-10.7024
つかない	-10.7024
負荷	-10.7028
ent	-10.7029
損害	-10.703
代前半	-10.703
恋愛感情	-10.7031
段階で	-10.7032
調べる	-10.7032
どおり	-10.7033
ヌツ	-10.7035
の変更	-10.7035
少	-10.7038
最終的には	-10.7038
関係が	-10.7039
研修	-10.7039
リカバリー	-10.7043
地図	-10.7044
に行ったり	-10.7045
の対応	-10.7046
するため	-10.7047
よいのか	-10.7048
しさ	-10.7048
があったり	-10.7048
結果は	-10.705
してみると	-10.705
yu	-10.7052
判	-10.7052
背中	-10.7054
清	-10.7055
細かく	-10.7058
にもよりますが	-10.7061
ことから	-10.7062
家族が	-10.7064
住み	-10.7067
車種	-10.7067
ねえ	-10.7068
副作用	-10.7069
ようになります	-10.707
どうでもいい	-10.7071
注	-10.7074
綺麗な	-10.7078
ヤフー	-10.7079
わかりやすく	-10.7081
bi	-10.7086
会社を	-10.7088
カップ	-10.7088
貴	-10.7089
出来ず	-10.7091
日程	-10.7091
専用の	-10.7092
提示	-10.7092
最終的に	-10.7094
くらいは	-10.7095
聞くと	-10.7096
ホール	-10.7102
使われる	-10.7107
してみました	-10.711
発展	-10.711
だということ	-10.7112
同様の	-10.7112
貰って	-10.7114
臭	-10.7116
したときに	-10.7117
ング	-10.7118
いる人	-10.712
道を	-10.7129
えない	-10.713
かっこいい	-10.7133
経験を	-10.7135
のかもしれませんね	-10.7135
お教えください	-10.7136
揃え	-10.7136
あれは	-10.7137
言え	-10.7137
ようでしたら	-10.7138
源	-10.7139
鉄道	-10.7141
を考え	-10.7142
オープン	-10.7142
睡眠	-10.7142
わけでもない	-10.7142
が足りない	-10.7145
っきり	-10.7147
壊れ	-10.7148
なったら	-10.715
周期	-10.715
++	-10.7152
アエ	-10.7155
ード	-10.7155
を購入し	-10.7155
ある程度の	-10.7155
夜中	-10.7157
ジム	-10.7159
▁it	-10.7161
有ります	-10.7162
させていただきました	-10.7168
使っています	-10.7169
本人の	-10.717
進む	-10.7172
わかる方	-10.7174
いけば	-10.7175
するとき	-10.7176
のではないですか	-10.7176
900	-10.7181
億	-10.7183
main	-10.7185
ことが多いです	-10.7186
ll	-10.7186
かれ	-10.7187
よく分かりません	-10.7188
高校の	-10.7188
友達も	-10.7189
俺の	-10.719
してますが	-10.7193
家は	-10.7193
あっても	-10.7196
議論	-10.7199
円の	-10.7199
していること	-10.72
に合わせて	-10.7203
min	-10.7203
すり	-10.7203
哲学	-10.7204
のメール	-10.7206
ラーメン	-10.7208
診断書	-10.7209
つま	-10.7209
楽しめる	-10.7211
off	-10.7211
ギリギリ	-10.7213
呼び	-10.7213
サイトに	-10.7215
代わりに	-10.7216
かというと	-10.7216
ようなもの	-10.7216
求め	-10.7218
一緒にいる	-10.722
を購入する	-10.722
それら	-10.7221
">	-10.7224
本音	-10.7224
念のため	-10.7225
売買	-10.7225
分解	-10.7234
このサイト	-10.7238
できなくて	-10.7245
ul	-10.7245
タグ	-10.7247
参	-10.7247
有線	-10.7248
はないのでしょうか	-10.7253
コッッョョョッ	-10.7254
等に	-10.7254
質問ですが	-10.7255
:\	-10.7256
状況を	-10.7257
敷	-10.7257
ii	-10.7258
てください	-10.7258
言えません	-10.7259
行政	-10.7259
になってから	-10.7261
偏	-10.7262
▁ラ	-10.7263
あんた	-10.7265
に使う	-10.7267
よくある	-10.7269
配慮	-10.7269
▁my	-10.7269
サイトの	-10.7269
となった	-10.727
生活が	-10.727
が入る	-10.7273
を押し	-10.7274
が強く	-10.7279
ィゥ	-10.728
周囲	-10.7282
づ	-10.7283
さっき	-10.7283
付属	-10.7283
rw	-10.7287
履歴書	-10.7288
exe	-10.7289
そうなると	-10.729
そっち	-10.729
いくらでも	-10.7291
これら	-10.7292
▁その	-10.7294
05	-10.7295
頻度	-10.7296
」、「	-10.7296
困っている	-10.7298
と言っている	-10.7299
どうもありがとうございます	-10.73
ときも	-10.7301
過ごして	-10.7301
もあるし	-10.7301
進行	-10.7301
しまっています	-10.7302
行けない	-10.7304
したいので	-10.7305
おっしゃる通り	-10.7308
切った	-10.7308
を守る	-10.731
呼吸	-10.731
場面	-10.731
di	-10.7312
ごめん	-10.7312
08	-10.7314
と言われます	-10.7316
間違いなく	-10.7318
沈	-10.732
子供達	-10.7321
ということですね	-10.7324
スキー	-10.733
のかどうか	-10.7331
こういうこと	-10.7332
気にして	-10.7334
と思うんです	-10.7335
目で	-10.7335
いままで	-10.7338
母親が	-10.7345
良いか	-10.7345
▁$	-10.7346
するまで	-10.735
出品者	-10.7351
暗い	-10.7354
食欲	-10.7355
一本	-10.7357
は関係ない	-10.736
ちゃった	-10.7365
長時間	-10.7365
変数	-10.7366
りする	-10.7366
理解して	-10.7372
でも構いません	-10.7374
去年の	-10.7375
憲法	-10.7376
受け入れ	-10.7376
することも	-10.7376
声が	-10.7379
節約	-10.738
交通	-10.738
黒い	-10.738
引いて	-10.7384
終わった	-10.7384
のだろうか	-10.7384
言うこと	-10.7385
くれたり	-10.7385
飼い	-10.7387
貴女の	-10.7392
通りに	-10.7395
≦	-10.7395
居ない	-10.7395
翻訳	-10.7397
たま	-10.7399
one	-10.7401
気軽に	-10.7402
実家の	-10.7403
のせい	-10.7404
知り	-10.741
貼り付け	-10.741
申し	-10.7411
ようにしています	-10.7412
と思いましたが	-10.7415
nt	-10.7419
してきます	-10.7419
二重	-10.742
従って	-10.7421
大人の	-10.7423
会場	-10.7424
済む	-10.7425
お仕事	-10.7429
イケ	-10.743
たいてい	-10.7435
年生の	-10.7439
を使用する	-10.7441
でもいい	-10.7441
国民年金	-10.7442
インド	-10.7442
連れて	-10.7442
方がいいと思います	-10.7443
はどうですか	-10.7443
はないのですが	-10.7444
因	-10.7445
武	-10.7447
服用	-10.7448
いきたい	-10.745
明け	-10.745
戻って	-10.7451
商品を	-10.7455
ts	-10.7457
可能性は	-10.7458
悩んでます	-10.7458
の付き合い	-10.7458
pi	-10.7459
整	-10.7459
タッチ	-10.7461
フラ	-10.7461
短く	-10.7463
は別	-10.7463
民主党	-10.7464
も必要	-10.7465
▁w	-10.7465
使われている	-10.7467
が多かった	-10.7468
▁10	-10.747
が少し	-10.747
たところ	-10.7475
のかなぁ	-10.7475
を作成	-10.7475
下着	-10.7476
付き合ってる	-10.7476
ハー	-10.7477
休憩	-10.7481
ようやく	-10.7482
吹き	-10.7482
有りません	-10.7482
に詳しい方	-10.7485
返金	-10.7486
自分だけ	-10.7487
就活	-10.749
方が良いと思います	-10.749
細胞	-10.749
林	-10.7492
のときに	-10.7493
職場に	-10.7495
教員	-10.7496
難しいです	-10.7496
の音	-10.7497
を受けました	-10.7498
になるか	-10.7498
ようと思います	-10.7499
禁	-10.7503
してくれない	-10.7505
いいと思いますよ	-10.7505
広く	-10.7505
解りません	-10.7505
子供と	-10.7507
夜の	-10.7507
命令	-10.7508
する人	-10.7508
の曲	-10.7509
お礼を	-10.7509
そうと	-10.7511
庭	-10.7512
知りたいです	-10.7513
払わ	-10.7514
▁on	-10.7515
かわからない	-10.7515
楽しかった	-10.7516
どー	-10.7516
観察	-10.7516
藤	-10.7516
ありますよね	-10.7517
どこかに	-10.7517
べきか	-10.7518
実力	-10.7519
がたくさん	-10.752
開き	-10.7522
私のことを	-10.7523
足り	-10.7523
困った	-10.7524
お湯	-10.7525
配置	-10.7526
登	-10.7526
のデータ	-10.7528
を使えば	-10.753
用語	-10.753
この場合は	-10.7532
できると思います	-10.7532
復活	-10.7534
の値	-10.7536
・・・(	-10.7538
はどのように	-10.7539
選ぶ	-10.7539
value	-10.7541
ではないですか	-10.7542
連絡して	-10.7544
おう	-10.7545
io	-10.7545
に移	-10.7545
ないけど	-10.7545
こんばんわ	-10.7546
ですみません	-10.7546
測	-10.7548
java	-10.7548
文系	-10.7549
ショー	-10.7549
も無く	-10.7551
婚	-10.7551
放題	-10.7555
すき	-10.7555
フロント	-10.7557
も含め	-10.756
入試	-10.7561
そのように	-10.7562
らなかった	-10.7562
かわ	-10.7564
摂取	-10.7564
といいですね	-10.7564
らせて	-10.757
きれいに	-10.757
直して	-10.7573
でなくても	-10.7573
の経験	-10.7574
手の	-10.7574
が増える	-10.7577
キッチン	-10.7579
報酬	-10.7581
の本	-10.7582
は絶対	-10.7584
とは思えません	-10.7585
とのことですが	-10.7585
結婚は	-10.7586
を見ても	-10.7587
のページ	-10.7588
口を	-10.7589
いだ	-10.759
どこから	-10.759
と言える	-10.7591
キング	-10.7594
携帯を	-10.7595
やろう	-10.7595
みたり	-10.7597
数ヶ月	-10.76
洋服	-10.7602
解決策	-10.7603
0%	-10.7603
わざと	-10.7603
控え	-10.7603
十分に	-10.7604
いい人	-10.7607
〇〇	-10.7608
そんな感じ	-10.7609
オス	-10.761
ドコモ	-10.7612
=3	-10.7612
くらいなら	-10.7612
経理	-10.7615
列車	-10.7617
af	-10.7617
09	-10.7618
環境で	-10.7618
終わる	-10.7622
を持っています	-10.7626
対処法	-10.7626
いたしました	-10.763
が来て	-10.763
今日も	-10.763
あげた	-10.7631
談	-10.7632
盗	-10.7633
かない	-10.7634
pe	-10.7635
ol	-10.7641
その女性	-10.7642
をお願いします	-10.7647
一方的に	-10.7647
貰った	-10.7649
気持ちも	-10.765
お金の	-10.7651
ものに	-10.7651
イキ	-10.7652
クア	-10.7655
抱き	-10.7655
他社	-10.7656
が有ります	-10.7657
止	-10.7657
がん	-10.7657
植え	-10.7659
ぃ	-10.7661
インク	-10.7662
に住んでいる	-10.7663
どうしますか	-10.7664
預金	-10.7666
97	-10.7666
キリ	-10.7667
毒	-10.7667
の前に	-10.7671
02	-10.7671
を知る	-10.7671
っていうのは	-10.7672
到着	-10.7672
はないです	-10.7672
をしたい	-10.7673
方法はないでしょうか	-10.7673
省略	-10.7674
除	-10.7679
ありますよ	-10.7683
相談して	-10.7684
流産	-10.7687
は少ない	-10.7691
話をして	-10.7692
お土産	-10.7692
っていた	-10.7693
看護師	-10.7694
が原因で	-10.7697
頑張る	-10.7697
の方法	-10.7698
棚	-10.7704
◆	-10.7707
妊娠中	-10.7709
グラ	-10.7713
平和	-10.7714
大量に	-10.7716
つながり	-10.7716
42	-10.7716
喉	-10.7717
分は	-10.7717
頼	-10.7719
族	-10.7719
数日	-10.7719
生命	-10.772
久	-10.7725
加害者	-10.7726
ヶ月で	-10.7727
うーん	-10.7727
はどんな	-10.7728
質問は	-10.7728
投げ	-10.7729
求める	-10.7731
九州	-10.7731
1.5	-10.7732
欄に	-10.7732
狂	-10.7733
回収	-10.7733
それだけで	-10.7735
機嫌	-10.7737
市役所	-10.7739
その点	-10.774
万くらい	-10.774
とって	-10.7742
高額	-10.7746
になるのは	-10.7746
ハウス	-10.7746
なんですよ	-10.7749
変えて	-10.7752
まった	-10.7752
みましょう	-10.7753
。(3)	-10.7754
あげ	-10.7754
要因	-10.7755
女の	-10.7756
自然と	-10.7757
ほしいです	-10.7759
もありますし	-10.776
失礼しました	-10.7762
必ずしも	-10.7763
セルに	-10.7765
いったい	-10.7765
寿命	-10.7766
机	-10.777
book	-10.7772
気がして	-10.7773
タオル	-10.7773
の量	-10.7774
幸せに	-10.7774
ブリ	-10.7774
との関係	-10.7776
ュア	-10.7776
の交換	-10.7776
いるか	-10.7779
始まり	-10.7779
予備校	-10.7779
人々	-10.7779
を得る	-10.7779
▁ヘ	-10.778
志望	-10.778
免	-10.7781
新たな	-10.7782
あるのか	-10.7782
チャレンジ	-10.7784
問題が	-10.7785
が大きく	-10.7785
直後	-10.7787
つないで	-10.7787
とかも	-10.7787
天皇	-10.7791
をとり	-10.7793
かい	-10.7793
どうなる	-10.7794
させたい	-10.7795
vi	-10.7796
そうでした	-10.7797
を変え	-10.7798
その時の	-10.7798
土曜日	-10.78
考えられない	-10.78
管理者	-10.78
してもらえる	-10.7801
と考えます	-10.7802
物語	-10.7802
新宿	-10.7803
役員	-10.7804
頭の	-10.7804
年上の	-10.7805
お返事ありがとうございます	-10.7806
との事	-10.7809
やめる	-10.7811
場で	-10.7811
住宅ローン	-10.7812
はまったく	-10.7813
月末	-10.7817
携帯の	-10.7817
型番	-10.7818
に設定	-10.7819
ないですよ	-10.7822
ghz	-10.7823
ソフトを	-10.7825
パートナー	-10.7826
一致	-10.7826
察	-10.7827
なくてもいい	-10.7827
入っている	-10.7827
コト	-10.7829
維持	-10.783
物の	-10.783
触れ	-10.7832
置	-10.7834
成り	-10.7835
学生時代	-10.7835
ソフトで	-10.7836
中々	-10.7836
知った	-10.7838
サラリーマン	-10.7842
ゾ	-10.7842
は特に	-10.7843
皮膚	-10.7844
は自分で	-10.7845
努力を	-10.7846
かかり	-10.7847
横に	-10.7848
いたのに	-10.7849
ウィ	-10.785
知らなかった	-10.7852
出せる	-10.7854
ペース	-10.7856
遠慮	-10.7857
親と	-10.7857
時期に	-10.7857
イア	-10.7857
--------------	-10.7858
バイトを	-10.7861
回る	-10.7861
エイ	-10.7862
見たこと	-10.7869
を送って	-10.787
つぶ	-10.787
スルー	-10.7872
の方々	-10.7873
吸い	-10.7874
しておきます	-10.7874
納	-10.7879
ファイ	-10.7881
楽しんで	-10.7881
の長さ	-10.7881
よほど	-10.7883
考えない	-10.7884
。3.	-10.7885
は本当に	-10.7885
んですけどね	-10.7885
可能性が高い	-10.7885
政治家	-10.7889
シャンプー	-10.7891
と違う	-10.7892
何より	-10.7893
主人と	-10.7895
娘は	-10.7898
されていません	-10.7899
回答が	-10.7899
迎え	-10.79
いくと	-10.79
その結果	-10.7903
点検	-10.7903
配達	-10.7904
罪悪感	-10.7905
札	-10.7905
間違いない	-10.7905
している人	-10.7905
政	-10.7907
ないのは	-10.791
ワー	-10.7912
普段から	-10.7914
のかわかりません	-10.7915
話せる	-10.7917
cos	-10.7918
関係なく	-10.792
彼ら	-10.7921
を見つけて	-10.7922
落ち込んで	-10.7925
いいのでは	-10.7925
学費	-10.7925
まない	-10.7926
-*-*-*-*-*-*-*-*	-10.7927
まわ	-10.7928
かんじ	-10.793
app	-10.793
もって	-10.7931
str	-10.7931
2%	-10.7932
沢	-10.7933
郵便	-10.7933
両親が	-10.7936
sr	-10.7939
ではないですが	-10.7941
的にも	-10.7943
はっきりと	-10.7943
思い切って	-10.7944
域	-10.7951
定め	-10.7954
一般的には	-10.7954
浪人	-10.7957
アジア	-10.7958
付ける	-10.7958
送料	-10.796
データの	-10.7962
という事は	-10.7969
いなければ	-10.7973
の使用	-10.7973
ものではありません	-10.7975
に加入	-10.7976
私達	-10.7976
とくに	-10.7978
に入っている	-10.7979
?』	-10.798
専	-10.7984
世帯	-10.7984
腸	-10.7985
仕組み	-10.7985
訴訟	-10.7986
感じがします	-10.7987
待つ	-10.7987
しつこく	-10.7987
2:	-10.799
の使い方	-10.7991
一般の	-10.7991
河	-10.7992
の範囲	-10.7992
なってしまう	-10.7993
増えて	-10.7993
適切な	-10.7995
爆	-10.7998
な感じ	-10.7999
age	-10.8
やりたいこと	-10.8002
建設	-10.8002
売れ	-10.8005
揚げ	-10.8006
膜	-10.8011
しょ	-10.8013
知恵	-10.8017
ようにして	-10.8018
今朝	-10.802
が悪く	-10.802
get	-10.8023
状態に	-10.8023
居て	-10.8025
輸入	-10.8025
吉	-10.8025
名前を	-10.8026
ion	-10.8027
それ以外の	-10.8027
-3	-10.803
緊急	-10.803
た方がいい	-10.8031
の気持ち	-10.8032
もないし	-10.8034
どうしようもない	-10.8034
と比べて	-10.8037
と思ってる	-10.8038
こんな感じ	-10.8041
ヘッド	-10.8042
home	-10.8042
近所	-10.8042
ッツ	-10.8043
open	-10.8044
△	-10.8045
できるもの	-10.8045
関心	-10.8045
の確認	-10.8047
数が	-10.8047
しょう	-10.8048
曲を	-10.8049
を買おう	-10.8049
をお勧めします	-10.8051
もあると思います	-10.8053
(^^;)	-10.8056
をしたら	-10.8058
0000	-10.806
時まで	-10.806
ご紹介	-10.806
内容の	-10.8061
だけなので	-10.8062
ano	-10.8062
になっていました	-10.8062
体型	-10.8063
の有無	-10.8063
国立	-10.8064
わかっている	-10.8065
当初	-10.8065
ますから	-10.8066
警告	-10.8067
かなと思います	-10.8068
検診	-10.8069
form	-10.8071
賃金	-10.8072
あったのですが	-10.8072
くらいしか	-10.8073
っぽ	-10.8076
メートル	-10.8077
聞いたこと	-10.8079
確保	-10.8083
一定	-10.8083
のならば	-10.8085
の判断	-10.8087
が正しい	-10.8088
ストーリー	-10.8089
日本人の	-10.8091
86	-10.8093
甲	-10.8094
と言うか	-10.8097
ーズ	-10.8097
犯人	-10.8097
が良く	-10.8097
我	-10.8099
ぜ	-10.8104
▁7	-10.8104
dell	-10.8104
たほうがいい	-10.8105
の裏	-10.8107
わかりませんが	-10.8108
はしていません	-10.811
ノリ	-10.8111
ができません	-10.8111
ことだと思います	-10.8114
甘	-10.8116
んじゃないですか	-10.8116
それこそ	-10.8117
でしたか	-10.8117
あるんでしょうか	-10.8117
イオン	-10.8117
入らない	-10.8121
購入する	-10.8121
チェ	-10.8121
徒歩	-10.8123
お店で	-10.8123
のだろう	-10.8125
落ちる	-10.8126
理屈	-10.8127
こだわり	-10.8127
ルー	-10.8127
兵	-10.8127
ゴルフ	-10.8129
誰かが	-10.8133
切符	-10.8134
トヨタ	-10.8135
親御さん	-10.8135
離婚して	-10.8137
今週	-10.8138
shop	-10.8138
台の	-10.8139
いただく	-10.814
しておいて	-10.8141
and	-10.8144
下り	-10.8147
コッッョョッソス	-10.8148
謝	-10.8149
連絡先	-10.815
推薦	-10.8153
ィウゥ	-10.8154
方針	-10.8157
夜は	-10.8157
するための	-10.8157
教えていただけないでしょうか	-10.8158
カテゴリ	-10.8159
ヤツ	-10.816
に行くと	-10.816
恥	-10.8161
言いたい	-10.8162
の勉強	-10.8164
ハローワーク	-10.8165
名称	-10.8167
やれば	-10.8168
激	-10.8174
の形	-10.8174
/4	-10.8175
一歩	-10.8175
分かりやすい	-10.8177
が違います	-10.8182
劣化	-10.8182
飽き	-10.8183
を開いて	-10.8185
帰国	-10.8185
大変です	-10.8185
時間がかかる	-10.8186
結果的に	-10.8186
fc	-10.8187
われる	-10.8187
は少し	-10.8187
議員	-10.8187
過ぎた	-10.8188
責め	-10.8189
に向けて	-10.8189
この度	-10.8192
民間	-10.8193
笑顔で	-10.8195
cr	-10.8196
太陽	-10.8197
喜び	-10.8199
43	-10.8199
とともに	-10.82
円くらい	-10.8205
お弁当	-10.8206
il	-10.8207
廃	-10.8207
売っている	-10.8208
部下	-10.8212
伝わって	-10.8213
フード	-10.8216
飲んだ	-10.8216
信じ	-10.8222
賛成	-10.8223
現地	-10.8226
地デジ	-10.8231
補償	-10.8231
わたしも	-10.8232
よろしい	-10.8233
欲しいです	-10.8234
煙	-10.8235
窓口	-10.8235
〜!	-10.8236
会える	-10.8237
芸	-10.8238
スクール	-10.8248
原則	-10.8248
本を	-10.8249
言葉は	-10.825
くせに	-10.8251
屋根	-10.8253
配偶者	-10.8255
娘さん	-10.8256
プレイヤー	-10.8256
aa	-10.826
day	-10.826
透明	-10.826
どうする	-10.8261
開け	-10.8263
ドレス	-10.8265
~	-10.8268
岩	-10.827
だったのか	-10.8272
挟	-10.8272
ヵ月	-10.8273
公共	-10.8276
嫌がらせ	-10.8277
会い	-10.8278
発想	-10.8279
58	-10.828
短期	-10.8282
何人か	-10.8283
管理会社	-10.8283
の話を	-10.8284
政策	-10.8285
浮気を	-10.8285
逃	-10.8285
は普通	-10.8286
する必要	-10.8288
営	-10.8288
してません	-10.8289
いかない	-10.8289
となっている	-10.829
並	-10.829
吸収	-10.8295
示談	-10.8297
カードを	-10.8301
いただけ	-10.8302
入籍	-10.8303
ご回答を	-10.8303
85	-10.8305
店の	-10.8306
ない限り	-10.8307
エル	-10.8308
で購入	-10.8316
静	-10.8317
▁ニ	-10.8317
業者に	-10.8319
リズム	-10.8319
金額は	-10.8319
通帳	-10.832
爆発	-10.8321
付き合っていた	-10.8321
--	-10.8321
思わず	-10.8322
フォロー	-10.8323
七	-10.8324
視点	-10.8324
てくれる	-10.8328
何時	-10.833
わり	-10.8332
人事	-10.8333
ことについて	-10.8334
称	-10.8337
ry	-10.8338
階段	-10.8339
価	-10.8342
みては	-10.8342
アップグレード	-10.8343
陸	-10.8344
▁de	-10.8345
とありますが	-10.8348
180	-10.8349
匂い	-10.8349
招待	-10.8351
隊	-10.8352
私にも	-10.8356
みよう	-10.8356
したりして	-10.8357
導	-10.8357
今日の	-10.8358
ビン	-10.8361
したほうが	-10.8362
割と	-10.8363
ものではない	-10.8365
善	-10.8366
州	-10.8367
後々	-10.8368
進路	-10.837
込め	-10.837
ぐらいで	-10.8371
された方	-10.8373
コーナー	-10.8374
ワイ	-10.8375
規模	-10.8377
里	-10.8377
方から	-10.838
する必要があります	-10.8381
されていて	-10.8384
男性です	-10.8384
心臓	-10.8385
入札	-10.8385
outlook	-10.8385
でお願いします	-10.8388
厳	-10.8389
□	-10.8389
福岡	-10.8389
この時期	-10.8389
見ます	-10.839
mg	-10.8391
冷凍	-10.8393
(3	-10.8393
気がする	-10.8394
するつもり	-10.8396
上位	-10.8399
年末調整	-10.8399
るの	-10.8402
とは思いません	-10.8402
(^_^;)	-10.8403
ってのは	-10.8405
fe	-10.8406
こんな事	-10.8407
マンガ	-10.8409
咳	-10.841
コッッョョッ	-10.8411
役に	-10.8413
今年は	-10.8413
大丈夫でしょうか	-10.8414
あっ	-10.8414
の悪い	-10.8416
高卒	-10.8419
map	-10.8419
断り	-10.8419
塗り	-10.842
神戸	-10.842
死に	-10.8423
key	-10.8427
▁with	-10.8428
その日	-10.8429
男性の方	-10.8431
よければ	-10.8431
護	-10.8432
芸能人	-10.8434
基本的な	-10.8436
はっきり言って	-10.8437
はいけません	-10.8438
air	-10.8438
チャー	-10.844
性別	-10.8442
px	-10.8442
句	-10.8444
っぱ	-10.8445
貧乏	-10.8446
日曜日	-10.845
256	-10.8451
謝って	-10.8451
ホルモン	-10.8452
分から	-10.8453
▁that	-10.8453
ご相談	-10.8453
辞めた	-10.8455
ファイルが	-10.8457
のせいで	-10.8457
マイク	-10.8457
植物	-10.8458
レンタカー	-10.8458
書籍	-10.8459
んだな	-10.8459
もかなり	-10.8459
2005	-10.8462
関係は	-10.8465
ぽ	-10.8466
れている	-10.8467
定期的に	-10.8469
すればよい	-10.8471
たくなる	-10.8471
表情	-10.8472
ないような	-10.8473
スロット	-10.8474
素敵	-10.8477
した方が良い	-10.8479
必要はない	-10.848
縮	-10.8481
に行けば	-10.8482
けば	-10.8482
しまえば	-10.8482
そうなんです	-10.8483
たいのです	-10.8484
質問者さま	-10.8485
皮膚科	-10.8485
メールも	-10.8485
ショッピング	-10.8489
頃から	-10.849
等々	-10.8493
プレ	-10.8494
魔	-10.8495
わず	-10.8495
ていて	-10.8496
髪の毛	-10.8499
戸籍	-10.8501
選んで	-10.8502
長々と	-10.8504
すと	-10.8504
神社	-10.8506
聞こえ	-10.8507
自宅に	-10.8509
と違って	-10.8509
遊	-10.8509
メン	-10.851
洗	-10.8511
就職活動	-10.8512
反論	-10.8513
冊	-10.8514
のですよね	-10.8515
制御	-10.8519
あう	-10.8521
みてはいかがでしょうか	-10.8523
md	-10.8523
願	-10.8524
が無いので	-10.8525
ae	-10.8525
女性を	-10.8525
飛んで	-10.8527
はほぼ	-10.8528
イッ	-10.8528
78	-10.8529
かれる	-10.853
の存在	-10.8532
焦って	-10.8536
67	-10.8536
振込	-10.8538
レシピ	-10.8539
身の	-10.854
断って	-10.8542
立つ	-10.8543
右側	-10.8544
虐待	-10.8547
手元に	-10.855
プラグ	-10.8551
柱	-10.8553
(5)	-10.8556
思いやり	-10.8557
なんだろう	-10.8557
もしない	-10.8562
個人的な	-10.8564
96	-10.8567
書かれた	-10.8567
組み合わせ	-10.8569
過ぎる	-10.8569
そりゃ	-10.8571
初期化	-10.8572
みて下さい	-10.8574
がわからない	-10.8574
これからの	-10.8575
似	-10.8577
おこ	-10.8577
すこし	-10.858
ランク	-10.8581
決める	-10.8581
存在する	-10.8582
パパ	-10.8582
しまったら	-10.8583
ですけどね	-10.8584
char	-10.8586
たらいい	-10.8586
わからないので	-10.8587
毎週	-10.8587
行けば	-10.8587
宅	-10.8588
探す	-10.8589
データが	-10.8589
見せて	-10.8593
を感じて	-10.8593
間違え	-10.8595
必要と	-10.8595
を付け	-10.8595
ることが	-10.8595
牛乳	-10.8597
一人の	-10.8597
であると	-10.8598
mu	-10.8599
ap	-10.8599
購入して	-10.8599
見方	-10.8599
ちょ	-10.86
真実	-10.86
志	-10.8603
判断する	-10.8603
数は	-10.8606
規則	-10.861
よろしければ	-10.8611
子さん	-10.8611
やり取り	-10.8611
公式	-10.8614
効果が	-10.8614
のかと	-10.8615
実績	-10.8616
限	-10.8621
たんですが	-10.8626
落とし	-10.8626
迷って	-10.8627
▁r	-10.8628
いますよね	-10.8628
を置いて	-10.8632
ぅ	-10.8632
に出て	-10.8632
に接続	-10.8633
黄色	-10.8634
惹かれ	-10.8635
学力	-10.8635
太郎	-10.8635
ある日	-10.8636
回答は	-10.8636
消えて	-10.8638
死にたい	-10.8642
高さ	-10.8642
に連絡	-10.8644
か分からない	-10.8646
行っている	-10.8646
採	-10.8646
解像度	-10.8647
いないと	-10.8647
おじさん	-10.8647
調理	-10.8648
はやはり	-10.8648
の変化	-10.8649
んだり	-10.8649
諦める	-10.8653
悪口	-10.8656
上昇	-10.8656
が多くて	-10.8657
とは思うのですが	-10.8658
ヒント	-10.8659
が少なく	-10.8664
手続きを	-10.8666
▁do	-10.8669
補助	-10.8672
どうしたらいいのでしょうか	-10.8672
子に	-10.8672
自治体	-10.8673
食べたい	-10.8674
母と	-10.8675
なぜなら	-10.8677
はわかりませんが	-10.868
部分に	-10.8682
支持	-10.8682
san	-10.8684
境	-10.8686
に出る	-10.8686
親から	-10.8686
ml	-10.8687
戻る	-10.8687
同士の	-10.8688
療法	-10.8688
▁イ	-10.8689
とか言って	-10.8692
当時は	-10.8696
って感じです	-10.8697
台湾	-10.8698
言葉に	-10.8699
冷え	-10.8699
家電	-10.87
ベルト	-10.8701
ございます	-10.8701
ココ	-10.8701
分を	-10.8702
女は	-10.8703
512	-10.8703
てきた	-10.8705
中古車	-10.8705
▁v	-10.8705
マスター	-10.8706
特徴	-10.8706
といわれ	-10.8707
かわかりません	-10.8707
友達として	-10.8707
吹	-10.8708
も何も	-10.8709
体験談	-10.8711
挑戦	-10.8712
知りました	-10.8713
row	-10.8716
水槽	-10.8716
未成年	-10.8717
ビット	-10.872
に来る	-10.872
だけではなく	-10.8722
の頃	-10.8722
それって	-10.8723
相手の方	-10.8724
ファイル名	-10.8724
に電話	-10.8724
皆さんに	-10.8725
おしえてください	-10.8725
苦手な	-10.873
に住んでいます	-10.8731
の授業	-10.8731
110	-10.8732
極端に	-10.8733
夜に	-10.8733
事例	-10.8734
きれない	-10.8734
アド	-10.8739
精神的な	-10.874
度々	-10.874
海外旅行	-10.874
広島	-10.8741
女性から	-10.8742
という意味で	-10.8742
契約を	-10.8745
してみたら	-10.8746
願い	-10.8747
▁sub	-10.8749
画面に	-10.8752
お子様	-10.8752
ジン	-10.8753
細い	-10.8753
max	-10.8753
ソフトバンク	-10.8758
まともな	-10.8759
かといって	-10.8761
に通う	-10.8761
出会った	-10.8761
おくと	-10.8762
左側	-10.8762
準	-10.8764
生後	-10.877
違って	-10.8771
だれ	-10.8772
取った	-10.8772
裸	-10.8773
いたこと	-10.8773
出さない	-10.8777
ジョ	-10.878
ものですか	-10.8781
フノホナ	-10.8781
が出てきて	-10.8781
で良い	-10.8782
しなさい	-10.8783
第二	-10.8784
暑い	-10.8784
声を	-10.8786
メント	-10.8787
大会	-10.8789
商売	-10.879
が高く	-10.8792
を含む	-10.8794
文面	-10.8795
質問者さんは	-10.8796
桜	-10.88
+1	-10.8802
だか	-10.8802
訓練	-10.8805
out	-10.8807
易い	-10.8809
崎	-10.8809
何十	-10.8811
逮捕	-10.8811
反映	-10.8812
時頃	-10.8813
音質	-10.8815
忙しく	-10.8816
ばかりの	-10.8816
があまり	-10.8817
プリ	-10.8819
クス	-10.8821
ホイール	-10.8822
注射	-10.8823
おっしゃるとおり	-10.8824
岡	-10.8825
物です	-10.8825
ランチ	-10.8826
質問に	-10.8826
構わない	-10.8827
ようでした	-10.8828
受け取り	-10.8828
するしかない	-10.8831
リーダー	-10.8831
と考え	-10.8833
していますか	-10.8834
チューナー	-10.8835
列に	-10.8838
してもいい	-10.8839
いなくても	-10.884
辛く	-10.884
習	-10.884
使います	-10.8842
マス	-10.8844
きている	-10.8845
息子の	-10.8846
多数	-10.8846
人生の	-10.8847
ジー	-10.8849
刑	-10.8849
ことができない	-10.885
認証	-10.8851
と共に	-10.8853
を決めて	-10.8854
在住	-10.8855
コート	-10.8858
中絶	-10.8858
を試	-10.8858
弦	-10.8859
ありましたら	-10.886
保証人	-10.886
手前	-10.886
かからない	-10.8862
解決する	-10.8862
灯	-10.8863
)→	-10.8863
同性	-10.8864
の方で	-10.8865
回答して	-10.8865
貰え	-10.8866
をしっかり	-10.8866
ill	-10.8867
乗車	-10.8868
組み	-10.8868
sony	-10.8868
div	-10.8869
片思い	-10.887
自衛隊	-10.887
無理やり	-10.8872
のが嫌	-10.8874
量が	-10.8874
以外にも	-10.8874
不動産屋	-10.8875
よくない	-10.8877
場合によっては	-10.8877
を食べ	-10.8878
ぐらいです	-10.8879
お薦め	-10.888
書かれて	-10.888
純	-10.8881
質問で	-10.8881
になっていた	-10.8881
軽自動車	-10.8881
と呼ばれる	-10.8883
剥	-10.8883
た時	-10.8886
適当な	-10.889
処	-10.8893
全体の	-10.8894
のみです	-10.89
ご主人の	-10.8902
が変わって	-10.8903
勉強を	-10.8903
いえば	-10.8904
缶	-10.8906
真面目に	-10.8909
ir	-10.891
次第で	-10.8913
なんとも	-10.8913
自民党	-10.8914
ウィンドウ	-10.8916
という事で	-10.8916
かわり	-10.8917
急いで	-10.8919
カテ	-10.892
itunes	-10.8922
。<	-10.8924
の大	-10.8927
家族で	-10.8929
舌	-10.893
顧客	-10.893
ホント	-10.8931
どう思われますか	-10.8933
勝手な	-10.8933
性質	-10.8933
があるか	-10.8934
nifty	-10.8937
点は	-10.8937
そのことを	-10.894
閉	-10.894
ものと	-10.8947
掲載	-10.8947
減って	-10.8948
を取得	-10.8948
東北	-10.8951
はすべて	-10.8952
ノイズ	-10.8954
日まで	-10.8955
前者	-10.8955
—	-10.8955
ひたすら	-10.8956
情けない	-10.8959
意見が	-10.896
消え	-10.8962
症状は	-10.8963
する前に	-10.8963
氷	-10.8964
やっぱ	-10.8964
ほうがいいと思います	-10.8965
悪化	-10.8966
57	-10.8968
勘	-10.8969
許せない	-10.8973
を見つけ	-10.8975
▁ツ	-10.8977
諸	-10.8982
しますよ	-10.8986
店に	-10.8987
聞かない	-10.8987
さい	-10.8987
期間は	-10.8988
ほとんどの	-10.8988
変わりません	-10.8991
期間が	-10.8991
プール	-10.8992
ナイ	-10.8993
路線	-10.8995
いたい	-10.8996
sim	-10.8996
平気	-10.8997
しま	-10.8997
両親は	-10.8999
増加	-10.9006
制作	-10.9007
可哀想	-10.9009
カタログ	-10.901
晩	-10.9013
どころ	-10.9013
ミン	-10.9013
に必要な	-10.9014
妥協	-10.9015
我が家の	-10.9016
ひどく	-10.9018
▁pro	-10.902
洗って	-10.9021
危険な	-10.9022
▁}	-10.9024
ということも	-10.9024
してくれました	-10.9026
画像の	-10.9028
count	-10.9028
に見える	-10.9029
理由も	-10.9029
その後の	-10.903
使	-10.9032
微妙な	-10.9032
イタリア	-10.9033
詳しくは	-10.9035
通常は	-10.9035
1/2	-10.9035
てます	-10.9036
起きる	-10.9037
吐き気	-10.9038
ルーム	-10.9038
の資格	-10.9038
を超える	-10.9038
お断り	-10.9038
自分には	-10.904
初め	-10.9041
ジュース	-10.9042
私の家	-10.9043
捨てる	-10.9043
▁↓	-10.9043
が出てきます	-10.9044
農	-10.9046
腐	-10.9047
杯	-10.9047
mon	-10.9048
韓国人	-10.9051
ような気がして	-10.9051
視聴	-10.9052
linux	-10.9053
先方	-10.9054
そうすれば	-10.9055
繋がり	-10.9057
からといって	-10.9057
集中	-10.906
リビング	-10.9062
話も	-10.9065
体の関係	-10.907
問題を	-10.9072
燃料	-10.9072
があるようです	-10.9072
解らない	-10.9073
ないなら	-10.9073
側は	-10.9073
延長	-10.9073
俺が	-10.9073
してみて	-10.9073
側から	-10.9074
どうやったら	-10.9076
法的に	-10.9076
みたいなの	-10.9078
異動	-10.9081
ますます	-10.9082
んでしょ	-10.9082
ことが出来る	-10.9082
pt	-10.9084
倒れ	-10.9086
個性	-10.9086
仲良し	-10.9087
あー	-10.9088
回避	-10.9088
部分の	-10.9089
予	-10.9091
若者	-10.9093
ようなこと	-10.9094
お腹が	-10.9094
が出来	-10.9094
になってます	-10.9095
を見せ	-10.9097
さっぱり	-10.9098
直線	-10.9099
そこで質問なのですが	-10.9099
投	-10.9099
人として	-10.91
主治医	-10.9102
しているのは	-10.9104
処女	-10.9104
高め	-10.9106
しにくい	-10.9107
一枚	-10.9107
余計な	-10.9107
いますよ	-10.9109
さず	-10.9109
回し	-10.911
くなって	-10.9111
意味がない	-10.9111
が発生する	-10.9112
電話が	-10.9113
自分の気持ち	-10.9113
のところに	-10.9114
ノト	-10.9115
▁6	-10.9115
旦那と	-10.9116
してもらい	-10.9116
側で	-10.9117
キン	-10.9118
モヤモヤ	-10.9119
線の	-10.912
そういえば	-10.9121
記号	-10.9124
忘れる	-10.9124
に登録	-10.9125
聴	-10.913
よくわからない	-10.9132
キュ	-10.9133
出来事	-10.9133
になるのか	-10.9133
買える	-10.9134
周りから	-10.9135
フィルター	-10.9135
160	-10.9138
bd	-10.9138
カウンセリング	-10.914
するときに	-10.914
フィルム	-10.914
ペア	-10.9141
驚きました	-10.9142
何年も	-10.9144
年生です	-10.9147
ショ	-10.9148
すっきり	-10.9148
格安	-10.9148
バラ	-10.915
イマイチ	-10.9151
ボランティア	-10.9151
友	-10.9153
感じました	-10.9155
モニタ	-10.9155
おもちゃ	-10.9157
会わない	-10.916
時給	-10.9164
便利な	-10.9168
からこそ	-10.9174
快	-10.9175
行為を	-10.9176
sub	-10.9177
予算は	-10.9179
セフレ	-10.9179
私自身は	-10.9182
させない	-10.9182
年賀状	-10.9183
2,3	-10.9186
という思い	-10.9187
そう言う	-10.9187
多いです	-10.9188
仕方ありません	-10.9189
拡大	-10.9191
なくていい	-10.9195
似ている	-10.9195
友人から	-10.9195
実践	-10.9196
入居	-10.9197
もないので	-10.9198
折	-10.9198
部の	-10.9199
指輪	-10.9199
盛	-10.9202
の中から	-10.9202
訳ではない	-10.9205
うまい	-10.9207
だの	-10.9213
ント	-10.9216
za	-10.9217
都	-10.9218
ピンク	-10.9218
気に入って	-10.922
通報	-10.9222
通販	-10.9222
前向きに	-10.9223
稼ぎ	-10.9225
分からないので	-10.9226
直ぐに	-10.9226
月まで	-10.9229
質問の	-10.9232
一方で	-10.9233
向か	-10.9233
できている	-10.9235
休む	-10.9235
聞きたいです	-10.9237
ソン	-10.9239
彼氏さん	-10.9239
持	-10.9241
ないですね	-10.9243
を選んだ	-10.9243
一緒にいて	-10.9245
レース	-10.9248
という意見	-10.9251
の日	-10.9251
チェーン	-10.9253
がありましたが	-10.9256
しら	-10.9257
籍	-10.9257
人口	-10.9257
堂々と	-10.9259
・・・・。	-10.9259
た方が	-10.926
の立場	-10.9261
ていく	-10.9266
にすれば	-10.9266
センス	-10.9269
孤独	-10.927
type	-10.9273
お聞き	-10.9275
も結構	-10.9275
てきました	-10.9278
渋滞	-10.9279
おねがいします	-10.928
ていません	-10.9281
0,	-10.9282
ない人	-10.9283
挙げ	-10.9283
上げる	-10.9284
鬼	-10.9286
ソニー	-10.9286
ウエ	-10.9288
しているようです	-10.9291
最新	-10.9293
儲け	-10.9297
赤い	-10.9299
いまだに	-10.9299
に対しては	-10.9302
はどのような	-10.9303
振動	-10.9305
隙間	-10.9306
死んだ	-10.9306
ぱ	-10.9307
天井	-10.9307
無駄な	-10.9308
小型	-10.9308
お金も	-10.931
なりたい	-10.9313
の様に	-10.9313
挙式	-10.9315
具体的には	-10.9321
キャラクター	-10.9321
dp	-10.9321
在庫	-10.9321
user	-10.9323
加えて	-10.9325
sc	-10.9326
冷や	-10.9326
ッチ	-10.9326
かもしれないけど	-10.9327
たとき	-10.9328
区別	-10.9328
経済的に	-10.933
避けて	-10.9333
たまま	-10.9334
作れる	-10.9334
フリーズ	-10.9336
に直接	-10.9336
(*	-10.9337
につき	-10.9337
その場合は	-10.9337
がなかった	-10.9337
続いて	-10.9341
ュュ	-10.9341
オリジナル	-10.9343
疑問です	-10.9344
パケット	-10.9345
上手	-10.9345
ないよう	-10.9345
労	-10.9346
圧力	-10.9346
条件で	-10.9348
許	-10.9348
ドン	-10.9349
するとか	-10.9352
数式	-10.9356
作用	-10.9358
を与える	-10.9359
入れない	-10.9362
合わ	-10.9362
があること	-10.9363
重量	-10.9366
の金額	-10.9368
現役	-10.9369
しなくて	-10.937
公立	-10.9371
届いて	-10.9373
ダブル	-10.9374
おかしく	-10.9374
混乱	-10.9374
赤ちゃんが	-10.9374
の多い	-10.9375
ダン	-10.9376
いただければ	-10.9376
やっています	-10.9378
を切り	-10.9379
ビザ	-10.938
伝えた	-10.938
経験談	-10.9382
フレッツ	-10.9383
へ行って	-10.9384
ファー	-10.9384
▁8	-10.9384
rs	-10.9387
施工	-10.9388
たのに	-10.9388
世話	-10.9389
答えが	-10.9391
個人で	-10.9393
たりします	-10.9393
速い	-10.9393
装着	-10.9393
出てきた	-10.9393
上記のような	-10.9394
ぉ	-10.9395
向上	-10.9396
間違っている	-10.9398
気づいて	-10.94
話しかけて	-10.9401
同士で	-10.9401
かわかりませんが	-10.9401
始末	-10.9402
噛み	-10.9403
構いません	-10.9405
一括	-10.9408
ブス	-10.9409
ロシア	-10.941
ナオ	-10.9412
言っていました	-10.9412
こんで	-10.9415
が可能	-10.9418
講師	-10.9419
論文	-10.942
の収入	-10.9421
演	-10.9422
動画を	-10.9424
わけではないので	-10.9425
わからなくて	-10.9426
internet	-10.9429
を出し	-10.9429
pr	-10.943
アホ	-10.943
れました	-10.943
見解	-10.9431
イス	-10.9432
出かける	-10.9436
結び	-10.9437
予測	-10.9444
したのか	-10.9444
4/	-10.9446
気づいた	-10.9447
になりそうです	-10.9447
を交換	-10.9448
社内	-10.9448
興奮	-10.9449
悪くない	-10.945
イケメン	-10.9451
別途	-10.9457
用事	-10.9458
自身の	-10.9459
考えてしまいます	-10.9459
レット	-10.946
アャ	-10.946
は非常に	-10.9462
下さいね	-10.9462
お気持ち	-10.9464
いている	-10.9464
行っています	-10.9465
貯蓄	-10.9465
tt	-10.9466
接する	-10.9467
ウソ	-10.9469
こういう場合	-10.9469
色が	-10.9469
だろうが	-10.947
けれども	-10.9474
申し出	-10.9475
をクリックして	-10.9478
代わり	-10.9478
抗	-10.948
ドメイン	-10.9482
その前に	-10.9482
おばさん	-10.9482
ことと	-10.9483
たた	-10.9484
ができ	-10.9484
行目	-10.9485
われて	-10.9486
流行	-10.9487
エロ	-10.9488
する際に	-10.949
思える	-10.9493
否	-10.9494
がわかる	-10.9494
知らず	-10.9494
点を	-10.9498
んでいる	-10.9499
残念	-10.9499
引く	-10.9504
お尻	-10.9504
ほか	-10.9506
ソフトウェア	-10.9506
なさそう	-10.9507
部屋で	-10.9508
アダプタ	-10.951
しますね	-10.9511
預け	-10.9511
発覚	-10.9511
レポート	-10.9512
しょっちゅう	-10.9513
日本が	-10.9514
出てきて	-10.9515
決まった	-10.9515
領収書	-10.9516
本題	-10.9518
望	-10.9518
に問い合わせ	-10.9519
消化	-10.9519
面積	-10.9519
の関係で	-10.9519
おっぱい	-10.9521
女の人	-10.9522
応じ	-10.9527
寒	-10.9528
犬の	-10.9532
いったら	-10.9533
出費	-10.9533
皆さんが	-10.9536
gr	-10.9536
別れました	-10.9538
分かる方	-10.9538
ぷ	-10.9539
通学	-10.954
などです	-10.9541
...(	-10.9542
度の	-10.9545
思想	-10.9545
調べた	-10.9546
にしたい	-10.9547
を選択して	-10.9548
に相談して	-10.9549
都会	-10.9556
我々	-10.9558
は出来ない	-10.9559
家が	-10.9559
無いので	-10.9559
質問して	-10.9565
▽	-10.9565
だったか	-10.9566
金額が	-10.9568
を見ていると	-10.9568
福	-10.9569
合コン	-10.957
手取り	-10.957
係	-10.9571
クリーニング	-10.9573
ましたか	-10.9574
いられる	-10.9576
が非常に	-10.9576
支払って	-10.9576
触	-10.9578
空白	-10.9583
のんびり	-10.9584
放棄	-10.9584
と思うし	-10.9585
借りて	-10.9585
なか	-10.9586
だからです	-10.9586
×2	-10.9589
あわせて	-10.9589
海外で	-10.9589
複雑	-10.9592
2008	-10.9593
相手方	-10.9593
バル	-10.9593
おお	-10.9594
男性から	-10.9595
に変換	-10.9595
賠償	-10.9596
グラフィック	-10.96
評	-10.9601
大事です	-10.9602
考えても	-10.9603
創	-10.9603
不思議な	-10.9603
コンプレックス	-10.9604
今後は	-10.9605
を取った	-10.9605
言いません	-10.9605
育ち	-10.9608
共同	-10.9608
帳	-10.9609
供給	-10.9609
反面	-10.9609
特殊な	-10.9612
されてます	-10.9612
著	-10.9613
させて頂きます	-10.9614
大卒	-10.9615
息子は	-10.9615
女の子が	-10.9615
そういうの	-10.9616
幸いです	-10.9616
香り	-10.9617
がいいです	-10.9617
77	-10.9619
ide	-10.9621
で行く	-10.9622
電車で	-10.9622
みたいな感じ	-10.9625
わたしが	-10.9625
退院	-10.9626
スプレー	-10.9627
出せない	-10.9628
イウ	-10.9628
欲しかった	-10.9629
されてしまう	-10.9632
様子を見て	-10.9633
早速の	-10.9635
破損	-10.9635
д	-10.9635
ヶ月くらい	-10.9636
用品	-10.9636
どちらかというと	-10.9637
責任を	-10.9638
いるような	-10.9638
組合	-10.964
130	-10.9641
問題です	-10.9646
どんなもの	-10.9646
が難しい	-10.9648
フリ	-10.9648
多少の	-10.965
勢	-10.9652
についてですが	-10.9653
アドレスを	-10.9653
助けてください	-10.9654
しなければなりません	-10.9654
神様	-10.9658
だとは思いますが	-10.9659
dr	-10.9662
家計	-10.9662
なさそうです	-10.9665
約束を	-10.9666
いただければ幸いです	-10.9666
肝	-10.9667
その通り	-10.9667
活躍	-10.9668
妄想	-10.9669
を入れた	-10.9672
という感じで	-10.9674
目は	-10.9674
可能性もある	-10.9675
勉強する	-10.9675
郵送	-10.9676
優しさ	-10.9677
子も	-10.9677
酸素	-10.9681
ツー	-10.9682
受けた	-10.9683
なくとも	-10.9685
渡し	-10.9686
と思うけど	-10.9689
があったら教えてください	-10.9689
品質	-10.9689
ke	-10.9694
網	-10.9694
女子です	-10.9696
事もあります	-10.9696
エョ	-10.9697
本当にありがとうございます	-10.9698
立派な	-10.9698
やや	-10.9699
言われたら	-10.9699
ドキドキ	-10.9699
ten	-10.9702
に通って	-10.9704
イライラして	-10.9704
益	-10.9704
の件	-10.9705
ホテルに	-10.9705
みんなで	-10.9707
;}	-10.9707
経営者	-10.9708
化粧品	-10.9708
浜	-10.9709
を実行	-10.971
看護	-10.971
時刻	-10.9711
全般	-10.9714
量は	-10.9714
帰ってきて	-10.9714
マル	-10.9715
コンタクト	-10.972
雇用保険	-10.9722
jo	-10.9722
?(2)	-10.9723
大好きです	-10.9724
おかしな	-10.9724
この問題	-10.9727
日本人は	-10.9727
頂く	-10.9728
高齢	-10.973
にかけて	-10.9731
の購入	-10.9733
飛ば	-10.9734
粗	-10.9735
がおかしい	-10.9737
死刑	-10.9737
判決	-10.9739
会議	-10.974
......。	-10.974
設定を	-10.9741
お気に入り	-10.9743
ment	-10.9743
の下に	-10.9743
見ない	-10.9744
ホントに	-10.9744
間違った	-10.9747
と思っていましたが	-10.9748
週間ほど	-10.9749
削	-10.975
同様に	-10.975
上手に	-10.9752
点灯	-10.9754
手作り	-10.9754
次元	-10.9757
本来の	-10.9757
例外	-10.9757
車線	-10.9761
カフェ	-10.9761
〜1	-10.9763
その後は	-10.9763
he	-10.9763
、(1)	-10.9765
バッ	-10.9765
ライフ	-10.9765
気になった	-10.9765
プライベート	-10.9767
しておけば	-10.9768
出来たら	-10.9769
母親の	-10.9771
どうなのか	-10.9771
襲	-10.9772
があったのですが	-10.9772
サンプル	-10.9773
じゃありません	-10.9774
について教えてください	-10.9775
についてです	-10.9775
久しぶりに	-10.9777
($	-10.9779
最新の	-10.9781
ながらも	-10.9784
ものですから	-10.9785
作業を	-10.9786
排卵日	-10.9787
することになりました	-10.9788
知り合いの	-10.979
らずに	-10.9794
オーー	-10.9794
を起動	-10.9794
体温	-10.9795
その理由	-10.9795
年下	-10.9795
重く	-10.9797
溶	-10.9799
認め	-10.9799
その人が	-10.98
ot	-10.98
盛り	-10.98
を見せて	-10.9801
ニュアンス	-10.9801
で検索	-10.9803
▁not	-10.9804
刻	-10.9806
をお願い	-10.9806
を提出	-10.9807
といわれて	-10.9808
dt	-10.981
方です	-10.9813
いただきました	-10.9813
を紹介	-10.9816
ことがありません	-10.9816
▁しかし	-10.9819
が嫌い	-10.9819
ハワイ	-10.9822
の症状	-10.9822
所有者	-10.9822
そのときは	-10.9822
子どもの	-10.9823
高いです	-10.9824
心配で	-10.9824
レコード	-10.9825
電話して	-10.983
実質	-10.9831
時半	-10.9831
?」「	-10.9835
はずなのに	-10.9836
方がいいのでしょうか	-10.9836
分かっている	-10.9839
なんの	-10.9839
育てる	-10.984
コア	-10.984
の距離	-10.984
等が	-10.9841
安くて	-10.9844
将来の	-10.9844
望み	-10.9844
疑って	-10.9845
水が	-10.9846
らん	-10.9847
つもりですが	-10.9848
貴女が	-10.9849
良いでしょうか	-10.9849
内定	-10.985
プロパティ	-10.9851
いるのです	-10.9854
89	-10.9854
占い	-10.9854
宣言	-10.9855
がかかって	-10.9856
分けて	-10.9856
おかげで	-10.986
足の	-10.9862
住まい	-10.9862
で十分	-10.9863
歳になる	-10.9863
ーター	-10.9863
自分の中で	-10.9863
問題集	-10.9863
-4	-10.9864
68	-10.9864
答	-10.9864
メンテナンス	-10.9866
ジュ	-10.9867
住民票	-10.987
にするか	-10.9871
んな	-10.9872
大丈夫だと思います	-10.9873
添	-10.9873
ヴィ	-10.9874
ショート	-10.9878
お返し	-10.9878
をもらって	-10.9881
クロス	-10.9881
が遅い	-10.9883
53	-10.9884
売る	-10.9884
教科	-10.9885
に住んで	-10.9886
キーワード	-10.9886
を目指す	-10.9887
偽	-10.9887
混	-10.9888
さほど	-10.9889
日記	-10.9889
中は	-10.989
という事です	-10.989
友達から	-10.9893
寄	-10.9895
今すぐ	-10.9896
周波数	-10.9898
ご指導	-10.9899
その人と	-10.9899
下痢	-10.99
が出ない	-10.9904
可能でしょうか	-10.9904
上の子	-10.9904
永	-10.9906
長さ	-10.9908
済	-10.9909
程度に	-10.9911
九	-10.9913
気に入った	-10.9915
進め	-10.9917
何かを	-10.9918
発電	-10.9921
暴言	-10.9921
びっくり	-10.9921
好きな人が	-10.9922
ごめんね	-10.9922
と一緒	-10.9929
インターネットで	-10.993
いますし	-10.9932
pl	-10.9933
bin	-10.9933
状況が	-10.9934
貸し	-10.9934
okwave	-10.9936
トレ	-10.9936
共通の	-10.9942
だろうか	-10.9944
ボー	-10.9946
が好きな	-10.9946
複雑な	-10.9949
を上げる	-10.9949
あげてください	-10.9949
汚	-10.9951
だす	-10.9952
先で	-10.9952
ダメです	-10.9953
授乳	-10.9956
疑	-10.9956
だと思うので	-10.9958
と感じます	-10.9958
リアル	-10.9961
児童	-10.9964
参考ユメフ	-10.9965
胸が	-10.9966
遺	-10.9966
アイドル	-10.9967
回くらい	-10.9968
そこを	-10.9968
ことや	-10.997
お店の	-10.9972
を作った	-10.9972
よっぽど	-10.9973
どうしたらいいでしょうか	-10.9973
しまうのです	-10.9974
婦	-10.9974
税務署	-10.9975
のイメージ	-10.9976
▁ァ	-10.9976
ことなど	-10.9977
しかしながら	-10.9977
暮らして	-10.9977
江	-10.9978
感じている	-10.9978
でもかまいません	-10.998
▁sp	-10.9984
どれが	-10.9986
継	-10.9987
キツイ	-10.9989
無視して	-10.9991
訴える	-10.9991
post	-10.9994
2006	-10.9994
過剰	-10.9994
それより	-10.9995
してみましたが	-10.9995
協会	-10.9995
あったので	-10.9996
地下鉄	-10.9997
・・)	-11
罰	-11.0002
配列	-11.0002
池	-11.0002
ニア	-11.0003
出せ	-11.0005
できるので	-11.0005
っけ	-11.0006
してある	-11.0008
どうぞよろしくお願いします	-11.0008
囲	-11.0008
オーナー	-11.0009
両親の	-11.0011
外食	-11.0012
ご存じ	-11.0014
ユーザ	-11.0016
gt	-11.0017
欠点	-11.0019
ましい	-11.002
監視	-11.0023
od	-11.0025
帰ってくる	-11.0027
ベー	-11.0028
必要ない	-11.0029
抱っこ	-11.0033
捨てて	-11.0034
二度と	-11.0034
質問なのですが	-11.0035
夜間	-11.0035
うる	-11.0035
拝見	-11.0036
陽	-11.0037
なんでしょうね	-11.0038
間隔	-11.0038
よいか	-11.0041
企業の	-11.0044
聖	-11.0045
書き方	-11.0045
トー	-11.0049
ハマ	-11.005
買	-11.0051
アイデア	-11.0052
めの	-11.0052
を食べる	-11.0053
近々	-11.0055
ローカル	-11.0055
崩	-11.0056
診療	-11.0056
する際	-11.0057
どっちが	-11.0058
かれた	-11.0059
きっちり	-11.006
変える	-11.006
の元	-11.0062
は何でしょうか	-11.0062
暖房	-11.0062
ウオ	-11.0064
新人	-11.0064
話した	-11.0065
=%	-11.0072
を希望	-11.0072
話です	-11.0073
濃い	-11.0073
軒	-11.0075
いいこと	-11.0076
離婚を	-11.0077
父親が	-11.0078
を超えて	-11.0078
動かない	-11.008
有り難うございました	-11.008
支店	-11.008
航空券	-11.008
られたり	-11.0082
なると	-11.0084
test	-11.0085
の中では	-11.0086
やってみます	-11.0086
経由	-11.0086
産婦人科	-11.0088
余計	-11.0089
マンションの	-11.009
シーズン	-11.009
回答者様	-11.0093
掛けて	-11.0093
嫌で	-11.0093
周りの人	-11.0094
所属	-11.0094
見ました	-11.0096
消去	-11.0096
改正	-11.0098
service	-11.0099
だと思い	-11.01
したかった	-11.0101
過ごし	-11.0103
廃止	-11.0103
投票	-11.0103
ビックリ	-11.0105
推奨	-11.0106
お見合い	-11.0107
はどうでしょう	-11.0108
異なります	-11.0109
rd	-11.0112
医学	-11.0113
÷	-11.0117
を払って	-11.0122
連絡は	-11.0125
自身が	-11.0127
たちは	-11.0127
の契約	-11.0128
時間くらい	-11.013
いなかったので	-11.0131
るんですが	-11.0131
おりますが	-11.0132
感覚で	-11.0133
贅沢	-11.0135
残った	-11.0136
遅	-11.0136
束縛	-11.0141
タイプです	-11.0141
お待ちしています	-11.0142
が大変	-11.0145
かって	-11.0147
が起こる	-11.0148
聴いて	-11.0148
残っている	-11.0148
別れたい	-11.0149
詞	-11.0151
cu	-11.0151
どうすればいいのでしょうか	-11.0153
ストーカー	-11.0154
が続く	-11.0155
じゃないでしょうか	-11.0155
したくて	-11.0156
ふり	-11.0157
副	-11.0158
保護者	-11.0159
狭	-11.0159
の管理	-11.0161
もうちょっと	-11.0163
疑い	-11.0165
問題の	-11.0165
いずれにしても	-11.0166
分かりませんが	-11.0166
いるんですが	-11.0167
した人	-11.0169
3,	-11.0169
苦しみ	-11.0171
ポリ	-11.0172
改造	-11.0174
住民	-11.0174
になっていて	-11.0174
どこでも	-11.0175
片道	-11.0175
よかったです	-11.0175
随分	-11.0176
で使う	-11.0178
の方と	-11.0179
59	-11.018
鳴	-11.0181
予防	-11.0182
決済	-11.0184
ずら	-11.0186
臨	-11.0187
果たして	-11.0188
機能が	-11.0188
どなたか教えてください	-11.0192
珍しい	-11.0194
に問題がある	-11.0194
られず	-11.0194
スポット	-11.0196
感が	-11.0197
質問者様は	-11.0198
vb	-11.0198
サウンド	-11.0199
貰える	-11.02
はどこ	-11.0202
アス	-11.0204
を繰り返して	-11.0207
効果は	-11.0207
借	-11.0208
できるのか	-11.0208
存	-11.0208
カッ	-11.0208
欲しいと	-11.0215
ノン	-11.0215
ようなのですが	-11.0215
良かったです	-11.0217
カエ	-11.0217
と思っていますが	-11.0219
▁フ	-11.022
ケチ	-11.0221
の間で	-11.0221
医療費	-11.0221
難い	-11.0222
思われる	-11.0224
勧め	-11.0226
不安な	-11.0227
帰った	-11.0229
洗剤	-11.0231
シングル	-11.0231
判らない	-11.0232
大勢	-11.0232
パーティー	-11.0232
たもの	-11.0233
ンド	-11.0236
向こう	-11.0237
を読み	-11.0237
場合もある	-11.0237
正確に	-11.0238
器具	-11.0239
私より	-11.0239
ダメだ	-11.0239
共働き	-11.024
食べない	-11.0241
ユモツ	-11.0241
クライアント	-11.0242
有り難うございます	-11.0243
の一	-11.0243
変わらず	-11.0243
非難	-11.0243
離婚する	-11.0244
変動	-11.0244
視野	-11.0248
.3	-11.0249
うれしい	-11.0249
滑	-11.025
ログ	-11.0251
禁煙	-11.0252
のホームページ	-11.0252
だと思われます	-11.0253
痛みが	-11.0253
トラウマ	-11.0253
難しいですね	-11.0254
婚活	-11.0256
勤め	-11.0257
所詮	-11.0257
話しかけ	-11.0261
va	-11.0262
やりとり	-11.0263
ばら	-11.0263
溶け	-11.0263
合っている	-11.0265
元カレ	-11.0266
記念	-11.0267
ia	-11.0267
にもよる	-11.0268
順に	-11.0268
▁or	-11.0268
これでは	-11.027
没	-11.0271
躊躇	-11.0272
会社員	-11.0273
舞	-11.0275
きています	-11.0276
免除	-11.0277
してみようと思います	-11.0277
残る	-11.0278
来年の	-11.0279
出ています	-11.0281
の請求	-11.0281
したいと考えています	-11.0282
はないので	-11.0282
間違えて	-11.0283
もありますので	-11.0283
と言ってました	-11.0283
ものなのか	-11.0283
移行	-11.0284
連休	-11.0285
っか	-11.0285
を付ける	-11.0286
%8	-11.0287
ことになり	-11.0287
キャッシュ	-11.0288
モバイル	-11.029
お世話	-11.0291
よいでしょうか	-11.0291
国民健康保険	-11.0293
受け取る	-11.0295
中国人	-11.0295
届く	-11.0295
失礼な	-11.0296
かく	-11.0299
告げ	-11.0299
処置	-11.0301
の上で	-11.0302
増える	-11.0303
謝り	-11.0303
の高さ	-11.0304
イル	-11.0306
),	-11.0306
36.	-11.0307
圏	-11.0307
と言っていた	-11.0308
小学	-11.0309
タンク	-11.0309
が出ている	-11.031
クルマ	-11.031
必要はありません	-11.0311
の画面	-11.0314
を使うと	-11.0314
は違う	-11.0315
喫煙	-11.0316
いいかな	-11.0317
レート	-11.0319
いずれも	-11.0319
警察官	-11.032
利用者	-11.0321
0.0	-11.0321
ポスト	-11.0322
一時的に	-11.0325
頂け	-11.0326
ないよ	-11.0326
本能	-11.0327
きって	-11.0327
銀行の	-11.033
地区	-11.0332
を感じます	-11.0333
気にせず	-11.0334
思わない	-11.0335
角度	-11.0335
マメ	-11.0336
パッケージ	-11.0336
たいので	-11.0336
丁寧な	-11.0336
ができた	-11.0337
確信	-11.0338
遅刻	-11.0339
聞こえる	-11.0341
男に	-11.0341
寝ている	-11.0341
結合	-11.0342
1500	-11.0342
子を	-11.0342
遺産	-11.0342
議	-11.0343
すこと	-11.0343
関係者	-11.0343
海外の	-11.0345
ことはできません	-11.0346
が問題	-11.0346
脇	-11.0348
姓	-11.0348
金融	-11.0349
知れ	-11.0349
").	-11.0351
可能性も	-11.0352
込	-11.0352
docomo	-11.0353
史	-11.0353
不愉快	-11.0353
すぎます	-11.0354
所は	-11.0356
そば	-11.0356
税理士	-11.0356
dc	-11.0357
年式	-11.036
くれたら	-11.0361
ゲームを	-11.0364
しそう	-11.0365
を見ながら	-11.0366
オョ	-11.0367
最低限	-11.0367
をやっている	-11.0368
薬は	-11.0369
ほんの	-11.037
神経質	-11.0371
テレビの	-11.0371
点が	-11.0372
親も	-11.0374
落札者	-11.0377
cat	-11.0381
平等	-11.0381
承諾	-11.0383
先が	-11.0383
話をする	-11.0385
フォー	-11.0385
41	-11.0385
克服	-11.0386
拡張	-11.0386
72	-11.0387
にいく	-11.0387
を目指	-11.0389
旨	-11.039
どんなこと	-11.039
有難う御座いました	-11.0393
張って	-11.0393
承知	-11.0394
干	-11.0394
になってしまって	-11.0394
なっています	-11.0395
にかかる	-11.0399
食事に	-11.04
支配	-11.0404
ことがありました	-11.0404
を見つける	-11.0404
許して	-11.0406
ギア	-11.0407
忘れた	-11.0409
だして	-11.0409
コンパクト	-11.0409
的で	-11.041
大家さん	-11.041
ようなことを	-11.0411
ましてや	-11.0413
ないようです	-11.0415
と判断	-11.0416
佐	-11.0417
の話です	-11.0417
ph	-11.0418
低く	-11.0419
チップ	-11.0421
ve	-11.0422
私のこと	-11.0423
足が	-11.0423
等も	-11.0423
の予定	-11.0423
ジャー	-11.0424
書きます	-11.0425
ありませんが	-11.0428
しんどい	-11.0432
音を	-11.0432
見えます	-11.0433
態度が	-11.0434
源泉徴収	-11.0434
ってしまう	-11.0434
code	-11.0435
好きになって	-11.0436
分子	-11.044
正確な	-11.0441
その後も	-11.0441
薄く	-11.0441
らなければ	-11.0442
ワイン	-11.0443
なきゃいけない	-11.0445
うまくいきません	-11.0445
教える	-11.0449
ヶ月ほど	-11.0449
待た	-11.0449
告白して	-11.045
ごはん	-11.0451
生きていく	-11.0452
か迷っています	-11.0452
おか	-11.0454
チラ	-11.0454
担任	-11.0455
残りの	-11.0456
3?	-11.0456
物で	-11.0457
)>	-11.0459
緩	-11.0459
ちゃんとした	-11.046
一般に	-11.046
お聞きしたい	-11.0461
ジャン	-11.0462
派遣社員	-11.0462
グレー	-11.0462
コッッョョョッッッ	-11.0463
自営業	-11.0463
ピル	-11.0463
本の	-11.0464
▁windows	-11.0464
決意	-11.0465
育て	-11.0466
フリーター	-11.0467
がでる	-11.0468
>「	-11.047
便利です	-11.0473
性行為	-11.0474
髪型	-11.0474
もあるようです	-11.0476
結婚生活	-11.0476
sei	-11.0478
に保存	-11.0479
育った	-11.048
全身	-11.0481
乾	-11.0482
いただきありがとうございます	-11.0483
リセット	-11.0487
と考えている	-11.0488
faq	-11.0488
酢	-11.0489
確実	-11.0489
味方	-11.0489
勝手	-11.049
曰く	-11.049
と思いますし	-11.049
場所が	-11.0491
▁no	-11.0491
の中には	-11.0493
に戻る	-11.0494
有給	-11.0494
fa	-11.0496
その上で	-11.0496
飼って	-11.0497
を信じて	-11.0498
必要性	-11.0499
音量	-11.0501
ほっと	-11.0503
くださり	-11.0503
2002	-11.0504
単純な	-11.0505
となれば	-11.0506
入れ替え	-11.0509
同時	-11.0513
身に	-11.0513
行っても	-11.0513
ライセンス	-11.0514
共感	-11.0514
向けの	-11.0515
落ちた	-11.0519
しようとすると	-11.0521
庫	-11.0521
を飲んで	-11.0522
)+	-11.0522
勧められ	-11.0523
手帳	-11.0523
音は	-11.0524
認めて	-11.0524
もいいと思います	-11.0526
ニキビ	-11.0527
フト	-11.0529
にします	-11.0529
の選択	-11.053
分かりやすく	-11.053
▁メ	-11.053
されず	-11.0531
なんですかね	-11.0531
まん	-11.0532
ヴァ	-11.0533
core	-11.0533
私にとって	-11.0537
載	-11.0537
ことはできない	-11.0538
崩れ	-11.054
データは	-11.0541
きたのですが	-11.0541
その子	-11.0545
ように感じます	-11.0546
と思ったり	-11.0547
辛くて	-11.0548
本心	-11.0549
んじゃないかと	-11.0549
ってことは	-11.055
を知っている	-11.055
とゆう	-11.055
生命保険	-11.055
明治	-11.055
存在しない	-11.0553
値が	-11.0553
バツイチ	-11.0555
湖	-11.0555
見たら	-11.0557
属	-11.0557
未練	-11.0561
を与えて	-11.0561
らせる	-11.0562
が出来た	-11.0562
は出来ません	-11.0566
ものなので	-11.0567
アレ	-11.0568
精一杯	-11.0568
されていますが	-11.0569
企画	-11.0569
少しだけ	-11.0571
見学	-11.0572
起こる	-11.0572
自分たち	-11.0576
かき	-11.0578
母親に	-11.0579
プロバイダー	-11.058
パーティション	-11.058
直前	-11.058
祭	-11.0581
墓	-11.0582
菓子	-11.0583
確認してください	-11.0583
聞きます	-11.0583
真似	-11.0584
後ろに	-11.0584
されるのは	-11.0584
を変更	-11.0584
かと思い	-11.0585
航空	-11.0585
しかないのでしょうか	-11.0585
を入力	-11.0586
は普通に	-11.0586
したいと	-11.0587
泡	-11.0587
かもしれないですね	-11.0588
おい	-11.0589
オート	-11.0589
ずいぶん	-11.0591
それにしても	-11.0592
ましたよ	-11.0594
謎	-11.0595
ドラ	-11.0595
交わ	-11.0596
を迎え	-11.0597
お子さんが	-11.0598
パニック	-11.0599
家族と	-11.0599
大家	-11.0599
ソフトの	-11.0601
ア日	-11.0602
双方	-11.0602
人間に	-11.0604
access	-11.0606
op	-11.0607
病院の	-11.0608
通過	-11.0609
不倫相手	-11.0609
何か良い	-11.0611
せん	-11.0611
矯正	-11.0612
食費	-11.0613
理解できる	-11.0615
並み	-11.0615
遠方	-11.0616
おろ	-11.0617
使いたい	-11.0617
家具	-11.0617
るんです	-11.0619
生き方	-11.0621
熟	-11.0622
便秘	-11.0622
あた	-11.0622
東芝	-11.0623
どうするか	-11.0624
intel	-11.0625
時代の	-11.0632
書式	-11.0633
かなと	-11.0638
すぎた	-11.0638
シール	-11.0639
激しい	-11.0639
私は現在	-11.0639
内側	-11.064
最後は	-11.0644
の後	-11.0644
画面の	-11.0645
ケータイ	-11.0645
折り	-11.0645
入ります	-11.0646
ナカ	-11.0648
に乗り	-11.0649
time	-11.0652
ショックでした	-11.0652
sho	-11.0653
好きになった	-11.0654
済ませ	-11.0654
蔵	-11.0655
無理して	-11.0656
簡単です	-11.0656
だったのに	-11.0658
する気	-11.0658
大学は	-11.0659
方がいらっしゃいましたら	-11.0659
結果が	-11.066
めちゃくちゃ	-11.0664
クラッチ	-11.0665
σ	-11.0668
くらいまで	-11.0668
秘密	-11.0668
じゃなかった	-11.0669
クレ	-11.0669
コッッ	-11.0669
奥さんが	-11.067
葬儀	-11.0671
いけません	-11.0671
um	-11.0672
わけですが	-11.0673
her	-11.0674
ウチ	-11.0675
洗う	-11.0677
宣伝	-11.0677
^2+	-11.0679
を含め	-11.0682
好きだから	-11.0684
働か	-11.0687
そうに	-11.0688
試しに	-11.0688
しないので	-11.0689
いただけないでしょうか	-11.069
2004	-11.0691
産業	-11.0692
てしまって	-11.0693
3%83%9	-11.0693
いえ	-11.0694
甘えて	-11.0694
浮	-11.0694
した上で	-11.0695
内臓	-11.0695
だからといって	-11.0696
することを	-11.0698
だったのでしょうか	-11.0698
するだけで	-11.07
しかった	-11.0701
拡張子	-11.0703
加速	-11.0705
開催	-11.0707
デイ	-11.0708
してはいけない	-11.0709
目的で	-11.0709
中止	-11.0712
販売店	-11.0712
死ね	-11.0712
を払う	-11.0715
繋いで	-11.0716
かもしれませんよ	-11.0716
たのは	-11.0716
ものだ	-11.0716
10.	-11.0716
万円くらい	-11.0717
ベン	-11.072
達成	-11.0721
どうしたらいいのか	-11.0721
飲食店	-11.0722
無駄に	-11.0724
大分	-11.0724
だと思いました	-11.0725
産後	-11.0725
イラスト	-11.0726
リフォーム	-11.0726
晴れ	-11.0727
ご参考までに	-11.0728
(=	-11.0728
氏名	-11.0729
が分からない	-11.0729
中間	-11.0732
はあるのですが	-11.0734
下がり	-11.0734
彼との	-11.0735
このような場合	-11.0736
大丈夫ですよ	-11.0737
奨学金	-11.0737
蓋	-11.0738
半ば	-11.074
洗濯機	-11.0741
金額を	-11.0741
今のまま	-11.0741
その日は	-11.0741
雲	-11.0741
付きの	-11.0742
スケジュール	-11.0743
を増やす	-11.0744
しつつ	-11.0745
りたい	-11.0747
コンクリート	-11.0748
統一	-11.0748
客観的に	-11.075
帰省	-11.075
お父様	-11.0751
私の両親	-11.0751
書いている	-11.0754
伴	-11.0756
夫婦で	-11.0758
聞いたところ	-11.0758
世界の	-11.076
赤字	-11.076
引用	-11.076
楽しめ	-11.0761
inter	-11.0762
=&	-11.0763
新卒	-11.0763
行ったこと	-11.0765
競争	-11.0766
img	-11.0767
割れ	-11.0768
環境に	-11.0769
をお持ち	-11.0769
夜中に	-11.0771
きれいな	-11.0771
▁という	-11.0773
コネクタ	-11.0774
年近く	-11.0776
メス	-11.0777
ci	-11.0777
要望	-11.0777
中国の	-11.0778
衝撃	-11.0779
その辺	-11.0779
tor	-11.078
コール	-11.0781
ことですが	-11.0781
のサイズ	-11.0783
レジストリ	-11.0784
ボン	-11.0785
好きになる	-11.0793
を覚え	-11.0794
独	-11.0795
幼児	-11.0796
種類の	-11.0797
君の	-11.0798
宿題	-11.0798
でもいいです	-11.0799
むか	-11.08
並んで	-11.08
思え	-11.08
script	-11.08
悪かった	-11.0801
曲が	-11.0801
4000	-11.0802
ネジ	-11.0803
滞納	-11.0804
傷つけ	-11.0805
苦しく	-11.0805
を送る	-11.0806
消える	-11.0807
話ですが	-11.0807
のままで	-11.0807
いいのに	-11.0808
お礼が遅くなり	-11.0809
それ以降	-11.081
眼鏡	-11.0813
のチェック	-11.0815
干渉	-11.0816
受験生	-11.0817
上がった	-11.0819
朝食	-11.0819
ありがたい	-11.0823
の理由	-11.0824
混雑	-11.0824
ソフトが	-11.0824
が出ました	-11.0825
画面で	-11.0826
だなぁ	-11.0827
気温	-11.0827
の練習	-11.0828
練	-11.0829
ように思えます	-11.0832
請求書	-11.0832
このとき	-11.0833
そんなの	-11.0835
する時	-11.0835
キョ	-11.0839
普段の	-11.084
理科	-11.084
ビタミン	-11.0841
代理店	-11.0842
オークションで	-11.0843
ナル	-11.0845
基礎体温	-11.0847
の定義	-11.0847
を追加	-11.085
効果的	-11.085
を与え	-11.0852
勤	-11.0852
硬	-11.0853
▁↑	-11.0854
view	-11.0858
たか	-11.0859
とお	-11.0859
ション	-11.086
専門の	-11.0861
jpg	-11.0864
叶	-11.0868
ホテルの	-11.0868
落ち着き	-11.087
87	-11.0871
当たって	-11.0872
仕方なく	-11.0872
出演	-11.0873
刀	-11.0876
進化	-11.0877
逃げて	-11.0878
検査を	-11.0878
模試	-11.0879
破壊	-11.0882
メガネ	-11.0884
頼んで	-11.0884
申し上げます	-11.0887
労働者	-11.0888
▁ォ	-11.0888
ことができました	-11.0889
自宅の	-11.0891
着て	-11.0891
ひとつの	-11.0892
76	-11.0893
堂	-11.0893
2.0	-11.0893
を検討	-11.0893
を食べて	-11.0894
部長	-11.0894
の責任	-11.0895
居た	-11.0897
できるような	-11.0897
府	-11.0897
疲れる	-11.0899
母親は	-11.0899
真面目な	-11.0901
酷	-11.0902
やめた	-11.0903
かったです	-11.0903
菜	-11.0904
刑事	-11.0904
を大事に	-11.0905
ありましたが	-11.0906
くると	-11.0906
どうしたらいいですか	-11.091
オール	-11.0913
rt	-11.0914
マジ	-11.0915
がなくて	-11.0916
決まっている	-11.0916
教えていただけませんか	-11.0917
かれて	-11.0917
ことをお勧めします	-11.0918
回目の	-11.0918
無しで	-11.092
ぼく	-11.092
ここでは	-11.0921
を行い	-11.0923
男と	-11.0923
夕	-11.0924
実施	-11.0926
英語を	-11.0927
たしか	-11.0927
ことでしょう	-11.0927
月額	-11.0927
令	-11.0928
収	-11.0928
則	-11.0928
血液検査	-11.0929
カビ	-11.093
見かけ	-11.093
soft	-11.0931
する場合は	-11.0931
寮	-11.0932
手配	-11.0933
が入った	-11.0934
利用する	-11.0935
我が家	-11.0935
すなわち	-11.0937
音楽を	-11.0937
どれか	-11.0938
どうなるか	-11.0938
ホワイト	-11.0939
万の	-11.094
なのかもしれません	-11.0941
聞けば	-11.0941
牛	-11.0945
の痛み	-11.0946
!』	-11.0948
気の	-11.095
遅くなり	-11.0951
52	-11.0952
だろうな	-11.0953
それはそれで	-11.0953
送られて	-11.0954
飛	-11.0958
チュ	-11.0958
めんどくさい	-11.0961
かったり	-11.0963
取れない	-11.0963
タイプで	-11.0965
を調べて	-11.0965
してみて下さい	-11.0966
+2	-11.0967
されるので	-11.0967
迷	-11.0969
賀	-11.0973
gu	-11.0974
濃度	-11.0975
apple	-11.0975
家事を	-11.0976
ご覧	-11.0976
とは言えない	-11.0977
料金は	-11.0977
かせて	-11.0977
方法はありますか	-11.0979
感じた	-11.0981
さを	-11.0982
ベランダ	-11.0982
要らない	-11.0983
私の考え	-11.0984
方がよい	-11.0984
質問させてください	-11.0984
私自身も	-11.0984
ことがあり	-11.0985
をやる	-11.0986
nta	-11.0987
この様な	-11.0987
マスク	-11.0988
逃げる	-11.0989
迷い	-11.0989
以下のような	-11.0989
いけばいい	-11.0991
kei	-11.0991
2、3	-11.0995
ur	-11.0995
通じ	-11.0995
許す	-11.0999
相応	-11.1
関係で	-11.1
金銭	-11.1001
いるもの	-11.1002
情報は	-11.1004
ベビー	-11.1005
入会	-11.1005
ひき	-11.1006
ダメージ	-11.1007
アルミ	-11.1007
の準備	-11.1009
か否か	-11.101
ア年	-11.101
方と	-11.1012
チヤ	-11.1014
休職	-11.1015
病院へ	-11.1017
してて	-11.1018
働いた	-11.1019
そうなんですか	-11.102
バイト先	-11.1021
son	-11.1021
が増え	-11.1021
レベルで	-11.1022
考えてみます	-11.1025
を起こす	-11.1027
お医者さん	-11.1028
返せ	-11.1029
案外	-11.1031
挿	-11.1031
発達	-11.1032
収入が	-11.1032
グル	-11.1038
偏見	-11.1039
出ません	-11.1042
る時	-11.1042
こみ	-11.1043
可能性が	-11.1044
前日	-11.1046
fd	-11.1047
っていて	-11.1047
助けて	-11.1051
樹	-11.1053
ana	-11.1053
歌手	-11.1053
欲求	-11.1054
語学	-11.1056
クト	-11.1058
によります	-11.1059
が変わった	-11.1059
スッキリ	-11.106
ref	-11.106
教えていただき	-11.1061
冷たく	-11.1061
かもしれないし	-11.1061
できていない	-11.1063
それなのに	-11.1063
えば	-11.1064
たつ	-11.1064
おきたい	-11.1066
する予定です	-11.1066
を待つ	-11.1067
赤ちゃんの	-11.1069
将来的に	-11.1069
らい	-11.107
▁have	-11.1071
残高	-11.1072
を知らない	-11.1072
天気	-11.1072
その際に	-11.1072
たの	-11.1073
どういう意味	-11.1073
を決める	-11.1074
してくれません	-11.1074
源泉徴収票	-11.1074
最低でも	-11.1075
になりますので	-11.1075
になりましたが	-11.1076
射精	-11.1078
選んだ	-11.1079
とメール	-11.108
の場所	-11.108
事がある	-11.108
祖父母	-11.1081
みんなが	-11.1081
性が	-11.1083
数年前	-11.1084
パネル	-11.1086
と聞くと	-11.1086
できますよ	-11.1088
それ以来	-11.1088
年前の	-11.1091
兼	-11.1092
りもします	-11.1093
見ても	-11.1095
おこう	-11.1095
君は	-11.1096
貴方に	-11.1096
両親と	-11.1097
おもしろい	-11.1098
ヘア	-11.1099
私たちは	-11.1099
真ん中	-11.1099
を表す	-11.1099
彼女さん	-11.11
まらない	-11.11
誠意	-11.11
69	-11.1104
オカ	-11.1105
聞け	-11.1105
行か	-11.1106
チュー	-11.1107
こうした	-11.1108
通い	-11.111
文章を	-11.111
年下の	-11.1111
ブゥ	-11.1115
が無かった	-11.1116
拘	-11.1117
チャット	-11.1118
いただける	-11.1118
頂きました	-11.1119
選べ	-11.112
東京都	-11.112
通る	-11.1121
息子さん	-11.1121
ラク	-11.1124
助言	-11.1124
コンピューター	-11.1124
了解	-11.1125
快適	-11.1127
まれて	-11.1128
太って	-11.113
子と	-11.1131
検定	-11.1131
感じの	-11.1132
にあたる	-11.1134
ョョ	-11.1135
がんばってください	-11.1136
内容で	-11.1138
▁ただ	-11.1139
トライ	-11.1139
暮らす	-11.114
どうしたらいい	-11.1141
掛かる	-11.1141
確認する	-11.1142
この時	-11.1142
返品	-11.1143
抽出	-11.1143
勝負	-11.1143
止める	-11.1144
について質問です	-11.1146
結婚後	-11.1147
自分達	-11.1148
何とも	-11.1148
生活に	-11.1149
婦人科	-11.1149
思ってしまいます	-11.115
特約	-11.115
ダンス	-11.1152
ck	-11.1152
ピアス	-11.1153
定額	-11.1155
持っていく	-11.1155
を含めて	-11.1157
デー	-11.1158
の接続	-11.1158
効く	-11.1161
分類	-11.1164
回ほど	-11.1165
はならない	-11.1165
入国	-11.1166
開業	-11.1167
わる	-11.1167
態	-11.1167
あれこれ	-11.1169
のみの	-11.1172
皿	-11.1172
いい加減	-11.1173
会話を	-11.1174
メーター	-11.1174
もせず	-11.1177
外れ	-11.1179
財	-11.1179
がどう	-11.118
で知り合った	-11.118
区間	-11.118
いいんでしょうか	-11.1181
にいる	-11.1181
義理	-11.1182
media	-11.1182
の治療	-11.1183
書き換え	-11.1183
抜いて	-11.1185
任意	-11.1186
を買いました	-11.1187
にしました	-11.1188
とんでもない	-11.1189
主婦です	-11.1192
同様	-11.1192
よろしいでしょうか	-11.1193
登場	-11.1194
なしに	-11.1195
table	-11.1197
読め	-11.1198
二人とも	-11.1198
ラブ	-11.1199
よかったら	-11.12
帰りに	-11.1201
イラ	-11.1202
株式	-11.1202
じゃないの	-11.1203
になるでしょう	-11.1203
求められ	-11.1205
着信	-11.1206
との事でした	-11.121
市の	-11.121
経由で	-11.1211
いくつ	-11.1211
取れ	-11.1211
を良く	-11.1212
保険証	-11.1213
物に	-11.1213
からすると	-11.1214
化して	-11.1215
ないため	-11.1217
でも結構です	-11.1217
弁当	-11.1217
あらかじめ	-11.1217
勧誘	-11.1219
すると思います	-11.1221
折れ	-11.1221
住んで	-11.1221
new	-11.1222
各種	-11.1222
使ってる	-11.1226
ミラー	-11.1226
ミー	-11.1228
畑	-11.1229
運命	-11.1229
額が	-11.1229
述	-11.1232
特急	-11.1234
system	-11.1235
減少	-11.1237
さっさと	-11.1237
に戻って	-11.1238
スク	-11.1238
なってしまいました	-11.1239
を削除	-11.1239
した結果	-11.124
割合	-11.1241
質問内容	-11.1242
に行っても	-11.1245
1-	-11.1246
のか分かりません	-11.1246
おっしゃる	-11.1247
防衛	-11.1247
明細	-11.1249
対策を	-11.1249
避け	-11.125
給付	-11.125
るために	-11.125
名前が	-11.1252
されるのでしょうか	-11.1255
東海	-11.1255
read	-11.1259
カリ	-11.1259
であることを	-11.126
なんていう	-11.1261
焼	-11.1261
釈	-11.1261
を聞く	-11.1262
毎	-11.1265
付き合いたい	-11.1265
通っている	-11.1266
ゆう	-11.1269
貯	-11.1269
女の子と	-11.1269
を確認して	-11.127
とは限りません	-11.1271
を中心に	-11.1273
大丈夫ですか	-11.1274
先輩に	-11.1275
dx	-11.1275
を使わない	-11.1277
市民	-11.1282
交通事故	-11.1283
態度を	-11.1285
砂糖	-11.1286
お母さんが	-11.1286
数人	-11.1287
閉じ	-11.1288
そう思う	-11.1288
よいでしょう	-11.1288
アルバイトを	-11.1288
居酒屋	-11.1289
がついている	-11.129
お姉さん	-11.129
数十	-11.1291
るとき	-11.1292
減り	-11.1292
保育	-11.1293
運転手	-11.1295
嫌がる	-11.1295
ありますので	-11.1295
んじゃないの	-11.1296
首相	-11.1297
前回の	-11.1299
ものがあります	-11.1299
なるもの	-11.13
最低限の	-11.13
の者です	-11.13
出来るのでしょうか	-11.13
名を	-11.1301
はなかった	-11.1301
需要	-11.1302
est	-11.1303
茶色	-11.1304
求めて	-11.1305
を参照	-11.1305
の電話	-11.1306
飲み物	-11.1307
覆	-11.1307
触って	-11.1308
も同じです	-11.1308
グリ	-11.131
経つ	-11.131
ムリ	-11.1312
を受診	-11.1314
債務	-11.1314
壊れて	-11.1314
如何	-11.1315
に住む	-11.1316
いかに	-11.1316
進み	-11.1316
よし	-11.1317
ー円	-11.1319
vba	-11.132
がすごく	-11.1321
変に	-11.1321
も全く	-11.1321
場合でも	-11.1321
整形外科	-11.1323
値を	-11.1325
美しい	-11.1325
しているのに	-11.1326
レイ	-11.1327
わかりにくい	-11.1328
カウント	-11.1329
思いません	-11.1329
が見	-11.133
ではないかと思います	-11.1332
権限	-11.1333
ご飯を食べ	-11.1333
確立	-11.1334
から見て	-11.1334
ご自分で	-11.1335
に応じて	-11.1337
▁ex	-11.1337
それよりも	-11.1338
韓国の	-11.134
利息	-11.1341
慎重に	-11.1342
仕事をしている	-11.1343
鬱病	-11.1344
con	-11.1348
徴収	-11.1348
と言われてしまいました	-11.1349
或いは	-11.1349
なりに	-11.135
を探し	-11.135
は無いと思います	-11.1352
焼く	-11.1352
番目	-11.1355
お得	-11.1357
ことが多く	-11.1358
試してみます	-11.1361
の事で	-11.1362
とは言え	-11.1365
ぶん	-11.1366
flash	-11.1367
チア	-11.1368
えっ	-11.1369
つけた	-11.1369
ハブ	-11.1369
使い分け	-11.1369
譲渡	-11.1369
ny	-11.137
問題がある	-11.1372
それらの	-11.1372
場所を	-11.1372
ぐらいに	-11.1372
にいって	-11.1372
いないのに	-11.1373
心地	-11.1374
お前は	-11.1374
向こうから	-11.1375
ご自分の	-11.1376
を続けて	-11.1377
メンタル	-11.1377
いこうと思います	-11.1378
と聞かれ	-11.1379
経験者の方	-11.1379
されているので	-11.1379
fax	-11.138
fx	-11.1383
気付いて	-11.1383
ニート	-11.1386
一定の	-11.1387
上限	-11.1388
んだよね	-11.1389
寄って	-11.139
もらえば	-11.1391
.4	-11.1391
インフルエンザ	-11.1393
がなくても	-11.1394
かも知れませんね	-11.1394
しなければいけない	-11.1396
パリ	-11.1396
集め	-11.1397
ような人	-11.1397
みたいなので	-11.1398
家から	-11.1399
をたくさん	-11.14
心境	-11.1401
のレベル	-11.1402
するから	-11.1402
申し訳ありませんが	-11.1404
老人	-11.1404
周りが	-11.1405
握	-11.1406
の家	-11.1408
思っていた	-11.141
喜ぶ	-11.141
-8	-11.1411
たまりません	-11.1413
無意味	-11.1413
かつて	-11.1415
間は	-11.1415
コントロールパネル	-11.1415
っていました	-11.1416
ギャンブル	-11.1419
=4	-11.142
なおさら	-11.1421
すみませんが	-11.1423
頑張り	-11.1423
live	-11.1424
疲れた	-11.1425
ほうがいいのでしょうか	-11.1425
グレード	-11.1425
本質	-11.1426
迄	-11.1426
億円	-11.1432
呼んで	-11.1432
もらえません	-11.1433
わかっています	-11.1434
なってしまいます	-11.1435
話している	-11.1438
ナン	-11.1439
未婚	-11.144
されれば	-11.1441
同じこと	-11.1442
食材	-11.1443
マフラー	-11.1443
地獄	-11.1445
騒音	-11.1446
du	-11.1447
しますよね	-11.1447
気にする	-11.1447
を行って	-11.1448
いなく	-11.1448
人でも	-11.1449
もないのに	-11.145
を出した	-11.1451
ty	-11.1452
を起こして	-11.1453
ゆる	-11.1453
観て	-11.1456
オリ	-11.1459
は多い	-11.1461
まくって	-11.1463
んと	-11.1463
殺人	-11.1466
いら	-11.1466
人なら	-11.1469
日常生活	-11.1469
もうひとつ	-11.1469
射	-11.147
魅力的	-11.1472
お店に	-11.1472
納税	-11.1476
しまうこと	-11.1479
概念	-11.148
つきあって	-11.1482
考慮	-11.1483
劣	-11.1483
がいっぱい	-11.1484
出来なかった	-11.1484
をすること	-11.1487
お知らせ	-11.1487
注意して	-11.1488
値引き	-11.1488
もらえます	-11.1489
の連絡	-11.149
日曜	-11.149
崩壊	-11.1492
中国語	-11.1494
できないのでしょうか	-11.1494
店員さん	-11.1495
製作	-11.1495
未経験	-11.1495
辛	-11.1496
良ければ	-11.1497
自己破産	-11.1497
上司の	-11.1498
好きじゃない	-11.15
ディング	-11.1502
が残って	-11.1503
集合	-11.1503
検証	-11.1504
お言葉	-11.1505
当事者	-11.1506
63	-11.1506
オナニー	-11.1507
年後に	-11.1507
薬の	-11.1508
と思ってました	-11.1509
駆除	-11.1511
形状	-11.1513
パスポート	-11.1514
人や	-11.1514
古く	-11.1515
の画像	-11.1515
したまま	-11.1516
君が	-11.1516
のバージョン	-11.1517
ュッ	-11.1519
代半ば	-11.1519
ロング	-11.1521
なさって	-11.1522
彼の気持ち	-11.1525
ケン	-11.1525
対応の	-11.1525
したのに	-11.1526
ごみ	-11.1528
頼み	-11.1528
数を	-11.1528
長女	-11.1529
市販	-11.1529
時代に	-11.153
見直し	-11.153
制服	-11.1531
のは当然	-11.1532
量を	-11.1532
が考えられます	-11.1533
傍	-11.1533
経った	-11.1534
開放	-11.1535
支えて	-11.1536
染め	-11.1536
パソコンが	-11.1536
この辺	-11.1537
揺れ	-11.1537
ディズニー	-11.1537
お聞きしたいのですが	-11.1538
黙	-11.1538
敗	-11.1538
くらいから	-11.1539
行きません	-11.154
育	-11.1541
浪	-11.1541
▁y	-11.1542
頼む	-11.1546
そう思って	-11.1547
失礼します	-11.1548
が上がる	-11.1549
言われても	-11.1553
人材	-11.1553
日前	-11.1554
先は	-11.1555
勤務先	-11.1556
どうなんでしょう	-11.1557
出会って	-11.1558
書いてあります	-11.1561
ware	-11.1562
と言われたので	-11.1562
興	-11.1562
ご存じの方	-11.1563
ありますね	-11.1564
た方が良い	-11.1564
いないのですが	-11.1564
のいい	-11.1565
精子	-11.1567
ut	-11.1569
qu	-11.157
ぜんぜん	-11.1571
吸って	-11.1572
を借りて	-11.1573
の計算	-11.1574
駅で	-11.1574
じて	-11.1577
のアイコン	-11.1578
いたところ	-11.1579
極めて	-11.1579
民族	-11.158
プロポーズ	-11.1582
くだらない	-11.1582
捕	-11.1583
なくてはいけない	-11.1583
そうやって	-11.1584
っちゃう	-11.1584
sql	-11.1585
たて	-11.1587
人なので	-11.1587
全てを	-11.1589
寿司	-11.1591
わからないのですが	-11.1592
をどう	-11.1595
居住	-11.1596
見えません	-11.1596
ホンダ	-11.1598
性格が	-11.1598
どちらに	-11.1599
振られた	-11.16
ウーー	-11.1603
する必要がある	-11.1604
散々	-11.1604
交差点	-11.1605
は高い	-11.1606
非常識	-11.1607
元に戻	-11.1608
奇	-11.1608
蹴	-11.1608
クラシック	-11.1609
気に入らない	-11.161
どうにも	-11.161
外の	-11.1611
おなか	-11.1611
ata	-11.1613
努力して	-11.1616
ユー	-11.1616
をそのまま	-11.1617
が無ければ	-11.1617
統計	-11.1618
79	-11.1618
規約	-11.1618
▁name	-11.1619
プチ	-11.162
我が	-11.162
衝突	-11.1621
講座	-11.1622
駅の	-11.1622
払	-11.1623
その男性	-11.1624
いらっしゃいましたら	-11.1625
どうすればいいでしょうか	-11.1625
に行ったら	-11.1627
壊れる	-11.1627
も多いです	-11.1628
比べ	-11.1628
いじ	-11.1629
べきだと思います	-11.163
してもらいました	-11.163
んだと	-11.1631
のが普通	-11.1631
ツテ	-11.1632
親権	-11.1632
その方が	-11.1636
場合も	-11.1637
パラ	-11.1638
不安定	-11.1638
行為は	-11.1639
申し訳ないです	-11.1641
を示す	-11.1642
申し訳ありませんでした	-11.1644
mhz	-11.1644
医学部	-11.1644
lu	-11.1644
128	-11.1647
3%81%	-11.1647
劇	-11.1648
着く	-11.1649
になったので	-11.1649
体制	-11.1649
聞かれた	-11.165
お小遣い	-11.1653
状況は	-11.1653
led	-11.1655
最近になって	-11.1656
受け取って	-11.1657
に対しても	-11.1659
教えていただいた	-11.166
できるでしょうか	-11.1665
数の	-11.1665
気になっている	-11.1666
診	-11.1666
tan	-11.1667
社会的	-11.1667
絞り	-11.1667
銃	-11.1668
流す	-11.1668
▁home	-11.1669
free	-11.1671
ぜひ教えてください	-11.1672
fm	-11.1674
7/	-11.1676
その人に	-11.1677
ミモ	-11.1678
フィールド	-11.1679
効果がある	-11.1679
ドラッグ	-11.1679
print	-11.168
紹介して	-11.1681
言われている	-11.1681
欧米	-11.1683
だよね	-11.1683
ドライ	-11.1683
豆	-11.1685
すご	-11.1685
連絡する	-11.1687
怪	-11.1688
に来た	-11.1689
どうなのでしょうか	-11.169
私の気持ち	-11.169
気分が	-11.169
kai	-11.1691
アクション	-11.1692
速く	-11.1692
慣れる	-11.1692
手伝い	-11.1694
reg	-11.1696
立ち上げ	-11.1697
座って	-11.1697
のときは	-11.1697
どちらでも	-11.1699
ということでした	-11.1699
たる	-11.1699
人類	-11.1699
事になります	-11.17
重複	-11.17
お話し	-11.17
闘	-11.1701
モーター	-11.1701
スムーズに	-11.1704
そのために	-11.1704
の考え方	-11.1704
映	-11.1705
と同じです	-11.1706
ィェ	-11.1706
やってます	-11.1707
◇	-11.1708
果	-11.1709
であれ	-11.1709
医師に	-11.171
線を	-11.1711
したんですが	-11.1712
3%83%8	-11.1712
していなかった	-11.1713
攻め	-11.1715
も少なく	-11.1715
サイズの	-11.1716
照	-11.1718
竹	-11.1719
閉め	-11.1719
文字が	-11.172
バリ	-11.172
ショップで	-11.172
うえ	-11.1721
どんな感じ	-11.1722
印鑑	-11.1723
問題はない	-11.1724
掛かって	-11.1725
のかもしれない	-11.1725
録	-11.1726
sl	-11.1727
罰金	-11.1727
——	-11.1727
私だったら	-11.1728
融資	-11.1728
倒産	-11.173
でやって	-11.173
つめ	-11.1732
似て	-11.1732
介	-11.1733
ご参考まで	-11.1734
乗車券	-11.1734
あら	-11.1735
千葉	-11.1736
は大変	-11.1738
良いのでは	-11.1739
グリーン	-11.174
vo	-11.1741
らす	-11.1741
ここで質問	-11.1741
ちゃいました	-11.1741
越し	-11.1741
間で	-11.1743
ことがない	-11.1744
思われて	-11.1746
はいない	-11.1747
スカ	-11.1747
受け入れて	-11.1747
ag	-11.1747
もらおう	-11.1747
傷つく	-11.1749
唯一	-11.175
sum	-11.1752
敏感	-11.1753
扱って	-11.1756
読み込み	-11.1756
3〜4	-11.1758
無事に	-11.1759
かまいません	-11.1759
8/	-11.176
いただきたいです	-11.176
考えが	-11.1761
はいつも	-11.1762
ヒト	-11.1762
入れた	-11.1764
思われ	-11.1764
ファイルは	-11.1765
いいのかわかりません	-11.1766
落ち着く	-11.1767
ご家族	-11.1767
ないですが	-11.1768
生き物	-11.1769
辞めたい	-11.177
がうまく	-11.1772
応え	-11.1772
講習	-11.1774
などでは	-11.1774
の更新	-11.1775
べきなのでしょうか	-11.1775
高速道路	-11.1777
も良く	-11.1777
落として	-11.1777
すか	-11.1778
こういうの	-11.1778
常時	-11.178
▁9	-11.1781
単位で	-11.1781
ことを言って	-11.1783
はいかがですか	-11.1783
お話を	-11.1784
猛	-11.1784
極力	-11.1787
・・・・・・	-11.1788
ei	-11.1788
の移動	-11.1789
見れば	-11.1789
のファイル	-11.1789
という問題	-11.179
と言われても	-11.179
インター	-11.179
退去	-11.179
行事	-11.179
通った	-11.1792
ィセ	-11.1792
そうした	-11.1793
とは思えない	-11.1795
もあるでしょう	-11.1795
スパイ	-11.1797
要領	-11.1797
周囲の	-11.1801
スレ	-11.1802
シャワー	-11.1803
封	-11.1804
漬け	-11.1804
テレ	-11.1805
はありますでしょうか	-11.1805
東京の	-11.1805
クレジット	-11.1808
をクリックすると	-11.1808
未だ	-11.181
普及	-11.1812
それくらい	-11.1812
な方	-11.1813
かさ	-11.1813
娘に	-11.1814
美容	-11.1814
肯定	-11.1818
わけでもなく	-11.182
坪	-11.182
対応を	-11.1821
楽に	-11.1821
てから	-11.1821
いるのが	-11.1823
中退	-11.1824
前で	-11.1825
上司が	-11.1827
といわれる	-11.1828
くり	-11.1828
シンプル	-11.1833
伝えました	-11.1833
聞かせて	-11.1833
他の方	-11.1834
テミユ	-11.1836
へん	-11.1837
をあげて	-11.1838
思えて	-11.1838
せません	-11.1839
ればよい	-11.1839
食事の	-11.184
望んで	-11.1841
すみませんでした	-11.1841
ニュー	-11.1842
を決め	-11.1842
以後	-11.1843
ではないのでしょうか	-11.1843
聞かせてください	-11.1843
データベース	-11.1844
画像が	-11.1845
question	-11.1846
完璧	-11.1846
の容量	-11.1846
還付	-11.1847
決めました	-11.1853
フォン	-11.1853
num	-11.1854
打ち明け	-11.1856
ウキ	-11.1857
気づき	-11.1857
枝	-11.1857
くれる人	-11.1857
を得	-11.1857
を理由に	-11.1857
ちゃって	-11.1858
どのくらいの	-11.1859
ばいい	-11.1859
atm	-11.186
装備	-11.186
見られて	-11.186
を切って	-11.1862
自動で	-11.1864
誘った	-11.1865
最大の	-11.1866
なれる	-11.1867
と入力	-11.187
ホスト	-11.187
ep	-11.187
を表示	-11.1873
くら	-11.1873
マイル	-11.1874
モー	-11.1874
いまして	-11.1874
てない	-11.1875
らせ	-11.1876
だとしても	-11.1876
ビュー	-11.1876
あけ	-11.1879
しているか	-11.1881
いらっしゃいます	-11.1881
方や	-11.1881
テロ	-11.1881
まれる	-11.1882
安倍	-11.1883
いったん	-11.1883
ime	-11.1886
ならず	-11.1888
うどん	-11.1888
ものなんでしょうか	-11.1888
fo	-11.1889
ゥサ	-11.1891
していないので	-11.1892
オタク	-11.1893
その中に	-11.1894
解り	-11.1894
firefox	-11.1894
何事も	-11.1896
可能性はあります	-11.1896
るんですか	-11.1898
生地	-11.1901
やること	-11.1901
濡れ	-11.1901
イジメ	-11.1903
必死に	-11.1905
と思いまして	-11.1908
遣	-11.1908
できるのですが	-11.1909
気にならない	-11.191
考えすぎ	-11.191
雑談	-11.1911
ようにする	-11.1911
0.5	-11.1912
老後	-11.1913
oh	-11.1914
84	-11.1917
少女	-11.1918
大切です	-11.1921
にお	-11.1922
はあると思います	-11.1922
上手い	-11.1922
もらっている	-11.1924
させること	-11.1925
▁これは	-11.1925
強度	-11.1928
%9	-11.1929
ということもあり	-11.193
続	-11.193
という理由で	-11.193
認知	-11.1931
してみたのですが	-11.1932
払った	-11.1932
▁type	-11.1932
ようと思っています	-11.1933
わかるのですが	-11.1934
うまくいく	-11.1935
支	-11.1935
どうした	-11.1936
というものです	-11.1937
の機能	-11.1938
-1)	-11.1939
憎	-11.194
教えてくれる	-11.194
きつく	-11.1942
があれば教えて下さい	-11.1945
tb	-11.1945
婚約	-11.1946
着物	-11.1946
ご丁寧に	-11.1948
救	-11.1948
良くなる	-11.1949
しすぎ	-11.195
(10	-11.1951
:1	-11.1951
body	-11.1952
下がって	-11.1953
(^^	-11.1953
何かいい	-11.1954
ネック	-11.1954
のある方	-11.1955
で働いて	-11.1956
形態	-11.1957
訳で	-11.1957
せいぜい	-11.1957
さら	-11.1957
借りた	-11.1957
ゆく	-11.1958
書いてあった	-11.1959
余談ですが	-11.1959
スタンス	-11.196
よく分からない	-11.196
を聞き	-11.1961
こども	-11.1962
止まり	-11.1963
接客	-11.1963
ヶ月間	-11.1964
いいもの	-11.1964
原子	-11.1965
ぴ	-11.1965
にアクセス	-11.1965
の勉強を	-11.1967
含め	-11.1967
恩	-11.1969
9/	-11.1969
も一緒に	-11.197
然	-11.1971
更	-11.1971
当たる	-11.1971
のは難しい	-11.1972
▁j	-11.1973
ュュュュュュュュュュュュュュュュ	-11.1975
りと	-11.1975
気持	-11.1977
金融機関	-11.1978
▁then	-11.1978
パイ	-11.1979
訳です	-11.1979
tel	-11.1981
名の	-11.1982
の割合	-11.1982
書店	-11.1984
リード	-11.1984
万円で	-11.1984
どこかの	-11.1984
買い換え	-11.1985
,「	-11.1986
浮気相手	-11.1988
直る	-11.1989
特殊	-11.1989
我が家は	-11.199
どうしよう	-11.1991
出せば	-11.1993
▁go	-11.1993
オレ	-11.1993
ようであれば	-11.1996
ee	-11.1998
の状況	-11.1999
過程	-11.2
伝わる	-11.2
pop	-11.2002
zu	-11.2003
無償	-11.2003
焼け	-11.2005
さんから	-11.2005
増え	-11.2006
豊	-11.2006
々と	-11.2007
。■	-11.2011
に集中	-11.2011
スープ	-11.2011
キリスト教	-11.2013
が見え	-11.2013
通う	-11.2014
するよう	-11.2014
そんなことを	-11.2014
問題ないと思います	-11.2014
やっても	-11.2017
ほうがよい	-11.2017
なるので	-11.2018
もわかりません	-11.202
気もします	-11.2022
書きましたが	-11.2023
input	-11.2025
得る	-11.2025
終わりました	-11.2026
失恋	-11.2029
tion	-11.203
包	-11.203
マット	-11.2032
を押して	-11.2033
つなぎ	-11.2034
オーストラリア	-11.2035
を考えている	-11.2035
解決方法	-11.2035
ないといけません	-11.2036
人によって	-11.2037
別れよう	-11.2039
向かい	-11.2039
支払わ	-11.2039
仕事をして	-11.204
朝から	-11.2045
「〜	-11.2046
のやり取り	-11.2046
事情を	-11.2047
を使います	-11.2047
単純	-11.2048
はちゃんと	-11.2049
ということですが	-11.205
始	-11.205
写真の	-11.2052
ーション	-11.2052
既	-11.2054
の友人	-11.2055
そのときに	-11.2056
の前	-11.2056
れたら	-11.2057
ましたね	-11.2057
とよく	-11.2061
アナタ	-11.2062
仲の良い	-11.2063
摂	-11.2063
麺	-11.2064
退会	-11.2067
自分のこと	-11.2069
ポー	-11.2069
ビデオカード	-11.2071
私の友人	-11.2071
のどちらか	-11.2071
育って	-11.2075
腫れ	-11.2075
やると	-11.2077
事実を	-11.208
の車	-11.2081
業種	-11.2082
味が	-11.2083
整形	-11.2083
ボディ	-11.2083
データー	-11.2084
この手の	-11.2085
作動	-11.2087
損失	-11.2088
信仰	-11.2089
range	-11.2089
ませんよ	-11.2094
にしている	-11.2094
あるんですか	-11.2095
悩んだ	-11.2096
発達障害	-11.2098
ものでした	-11.2098
の項目	-11.2099
ポケット	-11.2099
大きくなって	-11.21
信じられない	-11.2103
が何	-11.2104
何かアドバイス	-11.2105
が弱い	-11.2106
た後	-11.2107
系統	-11.2107
work	-11.2108
ヘルプ	-11.2108
スキ	-11.2109
▁end	-11.2111
十分な	-11.2111
加算	-11.2111
テンション	-11.2112
の違いは	-11.2113
昼食	-11.2114
自信がない	-11.2115
焦り	-11.2115
可能なのでしょうか	-11.2116
謝る	-11.2116
するほど	-11.2116
恐	-11.2116
行きたくない	-11.2116
ご自身の	-11.2117
父に	-11.2118
解け	-11.2118
という意味です	-11.212
ドライブに	-11.212
問い	-11.2122
ノートン	-11.2122
仏教	-11.2122
おっしゃるように	-11.2122
虫歯	-11.2123
シゥ	-11.2123
ぺ	-11.2124
年末	-11.2125
を目指して	-11.2126
あったり	-11.2126
わりと	-11.2126
日にち	-11.2127
おっしゃ	-11.2127
してあげる	-11.2128
注目	-11.2129
があるのは	-11.213
あること	-11.213
在日	-11.213
ウェア	-11.2131
のだ	-11.2131
ようか	-11.2132
発信	-11.2132
液体	-11.2132
そうなる	-11.2133
両方とも	-11.2133
ate	-11.2134
お詫び	-11.2138
オムツ	-11.2142
今回も	-11.2144
ガラ	-11.2144
言っていた	-11.2146
驚き	-11.2146
ことにします	-11.2148
読書	-11.2149
74	-11.2149
書かれています	-11.215
率は	-11.215
見てる	-11.2151
の中身	-11.2151
fu	-11.2152
暦	-11.2152
関わり	-11.2153
頂	-11.2155
のものを	-11.2156
感情的	-11.2157
人とも	-11.2157
power	-11.2157
がつかない	-11.2157
嫌われる	-11.2157
振る	-11.2162
置く	-11.2163
と感じました	-11.2165
中華	-11.2166
思うのですが	-11.2166
速度が	-11.2167
のパソコン	-11.2167
出しました	-11.2168
体育	-11.2168
国保	-11.2169
全く同じ	-11.2169
ネットに	-11.2171
**	-11.2172
習い事	-11.2172
改札	-11.2173
闇	-11.2173
荷物を	-11.2173
あらゆる	-11.2174
大嫌い	-11.2175
出来ますか	-11.2176
服を	-11.2176
〇	-11.2177
93	-11.2177
すぎると	-11.2178
群	-11.2179
この子	-11.218
キャンペーン	-11.2181
遅くなって	-11.2183
祝	-11.2183
はいません	-11.2184
調べると	-11.2187
しようと思って	-11.219
見れない	-11.219
フレ	-11.219
気を使って	-11.2192
停車	-11.2192
music	-11.2193
置いた	-11.2193
タイミングで	-11.2194
を外して	-11.2194
のインストール	-11.2194
してみれば	-11.2195
の繰り返し	-11.2197
▁he	-11.2198
日帰り	-11.2199
ムー	-11.22
値段は	-11.2201
ガイド	-11.2203
歳まで	-11.2204
の水	-11.2206
おばあちゃん	-11.2208
酸化	-11.2209
意識して	-11.2209
凝	-11.221
産んで	-11.221
をダウンロード	-11.2212
地域の	-11.2213
自力で	-11.2214
アゥ	-11.2215
かったので	-11.2215
の中でも	-11.2216
事はありません	-11.2218
この件	-11.222
気になっています	-11.2221
充	-11.2224
泊まる	-11.2225
夫婦の	-11.2226
下の子	-11.2226
人間として	-11.2227
原理	-11.2227
流れる	-11.2228
気持ちを伝え	-11.2229
叔母	-11.223
いますね	-11.223
消し	-11.223
照明	-11.2231
儀	-11.2231
腹筋	-11.2233
相続人	-11.2233
お互いが	-11.2233
sen	-11.2234
いいのではないでしょうか	-11.2235
になりますよ	-11.2235
か何か	-11.2236
何回	-11.2238
自分に自信	-11.2238
アラ	-11.2239
だったから	-11.2242
する事は	-11.2242
一人暮らしを	-11.2243
飾	-11.2243
るよう	-11.2243
した場合は	-11.2247
書きました	-11.2249
ヤヨ	-11.2249
ブー	-11.2251
調べてみます	-11.2256
振	-11.2257
ども	-11.2259
反射	-11.2259
かけた	-11.2259
隠して	-11.226
社会に	-11.226
しないこと	-11.2261
がまだ	-11.2263
できずに	-11.2264
見れ	-11.2264
download	-11.2266
額は	-11.2267
万人	-11.2271
二次	-11.2271
結果を	-11.2271
リス	-11.2272
考えました	-11.2272
壁に	-11.2272
簡易	-11.2274
方がいいです	-11.2274
決算	-11.2275
気持ちよく	-11.2275
聞かれて	-11.2278
が出てきました	-11.2278
の手続き	-11.2278
云	-11.2279
所を	-11.2279
離れる	-11.228
ページに	-11.2282
無理だ	-11.2284
口で	-11.2285
気配	-11.2288
されている方	-11.2289
がないから	-11.2291
後悔する	-11.2291
いるようで	-11.2293
link	-11.2295
恥ずかしながら	-11.2295
値段が	-11.2295
電話も	-11.2297
マイクロソフト	-11.2297
エッ	-11.2297
メーカ	-11.2298
あちこち	-11.2298
の評価	-11.23
毎日のように	-11.2301
チーズ	-11.2303
苦しいです	-11.2303
んだろうな	-11.2307
遺伝子	-11.2307
粒	-11.2309
に対しての	-11.2309
のひとつ	-11.231
風に	-11.2311
愛する	-11.2312
れず	-11.2313
暗く	-11.2314
実習	-11.2315
仕事上	-11.2316
#3	-11.2316
を続ける	-11.2317
虚	-11.2318
チテ	-11.2318
キッ	-11.2319
化する	-11.232
させて頂きました	-11.2322
ことが出来ます	-11.2322
思いっきり	-11.2323
涙が	-11.2324
ナシ	-11.2324
1,2	-11.2324
video	-11.2326
奥さんに	-11.2326
残念です	-11.2327
わずか	-11.2328
ふつう	-11.2329
と書いてある	-11.233
ネーム	-11.233
プレッシャー	-11.2332
セクハラ	-11.2333
スの	-11.2333
オッ	-11.2334
メジャー	-11.2334
♂	-11.2334
誌	-11.2335
歌って	-11.2337
妹が	-11.2339
そうなのですが	-11.234
工業	-11.2341
はともかく	-11.2341
と言いますが	-11.2343
ような感じで	-11.2343
甘く	-11.2344
ダメでした	-11.2345
->	-11.2347
しばらくは	-11.2347
頑張ろう	-11.2348
それでいい	-11.2349
we	-11.235
焼いて	-11.235
ミュ	-11.235
親しい	-11.2351
date	-11.2353
機種は	-11.2354
太り	-11.2354
交換して	-11.2357
エレ	-11.236
キレ	-11.236
ないと思いますよ	-11.2362
暴	-11.2362
歯医者	-11.2363
まっ	-11.2363
を上げ	-11.2365
image	-11.2366
の条件	-11.2367
一番の	-11.2367
麻酔	-11.2368
デパート	-11.2368
分かりますが	-11.2368
使い勝手	-11.2368
ウェイ	-11.2368
何日	-11.2369
ませんし	-11.237
はどのくらい	-11.2371
不思議です	-11.2371
aaa	-11.2372
たくさんあります	-11.2373
自分にとって	-11.2374
style	-11.2374
糖	-11.2375
要件	-11.2378
都道府県	-11.238
2-	-11.238
連絡も	-11.238
言っています	-11.238
椅子	-11.2382
でもある	-11.2382
癒	-11.2383
にせよ	-11.2386
あるもの	-11.2387
▁pc	-11.2387
を飲む	-11.2388
見極め	-11.2388
高校生の	-11.2391
=(	-11.2392
が合わない	-11.2393
の性能	-11.2393
と考えているのですが	-11.2394
付いた	-11.2395
市町村	-11.2395
巣	-11.2395
の相談	-11.2396
見込み	-11.2397
では無く	-11.2399
浅い	-11.24
しちゃう	-11.24
ことによって	-11.2402
を設置	-11.2403
主観	-11.2403
なれ	-11.2405
を選択する	-11.2406
午前	-11.2406
ものだと	-11.2406
バレンタイン	-11.2408
嫌われて	-11.2409
淡	-11.241
ページを	-11.241
を確認する	-11.2412
了承	-11.2413
ようとする	-11.2414
駅まで	-11.2414
冷めて	-11.2414
掛かり	-11.2415
かず	-11.2417
抱	-11.2417
の電源	-11.2418
お給料	-11.2419
信じる	-11.2419
オフィス	-11.2419
考えを	-11.2419
触る	-11.242
pci	-11.2423
の力	-11.2424
英語が	-11.2426
万円程度	-11.2427
ナメ	-11.2429
ゞ	-11.243
そばに	-11.243
にしています	-11.2431
考えられません	-11.2432
ような気もします	-11.2434
ベストアンサー	-11.2437
溝	-11.2439
article	-11.244
日本語で	-11.2441
テニス	-11.2441
思えない	-11.2444
個別	-11.2444
飼い主	-11.2446
なってきました	-11.2447
治療費	-11.2447
購入しました	-11.2448
華	-11.2448
容	-11.2448
座席	-11.2448
施	-11.2449
に変えて	-11.245
一般人	-11.245
▁ちなみに	-11.245
世界で	-11.2451
gs	-11.2452
薬局	-11.2453
ッカー	-11.2453
なところ	-11.2454
javascript	-11.2455
レンジ	-11.2456
bl	-11.2457
部に	-11.2457
備え	-11.2458
の問題です	-11.2459
買わ	-11.2461
早朝	-11.2461
溜まって	-11.2461
やりました	-11.2462
心理学	-11.2464
流し	-11.2464
教えて頂きたいです	-11.2465
現行	-11.2466
さに	-11.247
処理を	-11.247
日本語の	-11.2471
を紹介して	-11.2472
その子は	-11.2472
自分より	-11.2473
くださった	-11.2474
父親の	-11.2474
というものは	-11.2475
レッスン	-11.2475
お聞かせ	-11.2476
自分の気持ちを	-11.2476
成果	-11.2476
カウンセラー	-11.2476
を用いて	-11.2476
迷惑をかけ	-11.2477
論理	-11.2477
会話が	-11.2483
の利用	-11.2486
才能	-11.2486
rakuten	-11.2489
方向で	-11.2491
総額	-11.2491
意味は	-11.2491
はあるでしょうか	-11.2491
調べたところ	-11.2493
円程度	-11.2493
と言われたら	-11.2494
abc	-11.2494
したことがあります	-11.2495
繰り	-11.2495
方程式	-11.2495
二つの	-11.2496
gw	-11.2496
本で	-11.2497
すべきです	-11.2497
あんなに	-11.2497
と聞いたのですが	-11.2497
ボリューム	-11.2499
だとすると	-11.2499
学ぶ	-11.25
知人に	-11.25
size	-11.25
理性	-11.2501
視力	-11.2502
rc	-11.2502
を繰り返し	-11.2503
無限	-11.2505
をもつ	-11.2505
ないまま	-11.2506
スー	-11.2507
あの時	-11.2509
当初は	-11.2511
判りません	-11.2511
カオ	-11.2511
猫の	-11.2512
プレー	-11.2513
と思ってしまう	-11.2514
天然	-11.2515
のと同じ	-11.2516
月分	-11.2516
のですよ	-11.2518
▁【	-11.2519
なんかも	-11.252
pp	-11.2521
セットアップ	-11.2521
相談する	-11.2522
♀	-11.2523
それに対して	-11.2524
朝鮮	-11.2524
カードの	-11.2524
使われて	-11.2524
を繰り返す	-11.2526
貰い	-11.2528
のお店	-11.2529
適切	-11.253
か分かりませんが	-11.253
クーラー	-11.253
眠れ	-11.253
一向に	-11.2533
発生する	-11.2534
待っている	-11.2534
なくなってしまう	-11.2535
たちが	-11.2536
の故障	-11.2536
▁this	-11.2539
燃え	-11.254
小学生の	-11.2541
がありましたら教えてください	-11.2541
高校時代	-11.2543
言ったり	-11.2543
いつまで	-11.2543
容器	-11.2544
ということですか	-11.2544
のがいい	-11.2545
エオ	-11.2546
これから先	-11.2546
手紙を	-11.2546
質問が	-11.2547
枕	-11.2547
_0	-11.2547
10%	-11.2548
の男です	-11.2548
そんなもの	-11.2549
させてください	-11.2549
猫が	-11.255
親しく	-11.2556
94	-11.2557
考えてる	-11.2557
の仕事を	-11.2557
3:	-11.2557
価格は	-11.2558
肺	-11.2559
血液	-11.256
富士通	-11.256
自然な	-11.256
homepage	-11.2562
ロス	-11.2563
ご説明	-11.2564
仕方	-11.2564
やすいです	-11.2566
解凍	-11.2567
露	-11.2568
破綻	-11.2568
って感じで	-11.257
にもなる	-11.2571
ことばかり	-11.2571
ユニ	-11.2573
世の中には	-11.2575
参考になれば	-11.2576
ものがある	-11.2578
づつ	-11.2578
の負担	-11.2578
飼育	-11.258
座り	-11.2581
〔	-11.2581
書か	-11.2582
わからなく	-11.2584
覚える	-11.2586
続けた	-11.2587
主な	-11.2588
願望	-11.2588
ェゥ	-11.2589
イゥ	-11.2589
ベクトル	-11.2591
の時期	-11.2591
ロゴ	-11.2591
退社	-11.2592
ができます	-11.2594
せいで	-11.2594
お大事に	-11.2595
のある人	-11.2596
クリニック	-11.2596
を通じて	-11.2596
ええ	-11.2597
子供の頃	-11.2599
るだけで	-11.2599
初めは	-11.26
経験のある方	-11.26
描いて	-11.2602
ではないかと	-11.2602
振込み	-11.2605
いるなら	-11.2606
本社	-11.2606
沢山の	-11.2606
楽な	-11.2609
いるため	-11.2615
昨年の	-11.2616
顔も	-11.2617
分で	-11.2621
ついている	-11.2622
定番	-11.2622
大学受験	-11.2624
バラバラ	-11.2624
エステ	-11.2625
追記	-11.2625
恋愛経験	-11.2625
貼って	-11.2626
のメリット	-11.2626
あるのですか	-11.2627
贈与	-11.2627
名前は	-11.2631
リンク先	-11.2632
全体的に	-11.2634
私にとっては	-11.2635
ていますが	-11.2635
トイレに	-11.2635
数え	-11.2636
aspx	-11.2638
断った	-11.2638
fr	-11.2638
醤油	-11.2639
舞台	-11.264
ボケ	-11.2641
モト	-11.2643
ロール	-11.2644
大人になって	-11.2645
支障	-11.2645
を減らす	-11.2645
●●	-11.2645
知らない人	-11.2647
を全て	-11.2647
軽減	-11.2649
の国	-11.2649
▁your	-11.265
頑張って下さい	-11.265
リモコン	-11.265
で働く	-11.265
完	-11.2651
のものです	-11.2652
サラダ	-11.2652
の動き	-11.2653
騙	-11.2653
いるし	-11.2654
なよ	-11.2654
る方	-11.2656
ドライブの	-11.2656
与え	-11.2657
ませんよね	-11.2657
幾ら	-11.266
だろうと思います	-11.266
病院に行く	-11.2661
83	-11.2663
が使える	-11.2666
car	-11.2666
というよりも	-11.2667
与	-11.2667
今までに	-11.2668
にあたって	-11.2668
を導入	-11.2668
扱っている	-11.267
家族は	-11.2671
辞典	-11.2671
電気代	-11.2671
教習所	-11.2673
陣	-11.2673
らしいので	-11.2673
簿記	-11.2676
知られて	-11.2679
つらいです	-11.2679
寂しさ	-11.2681
聞か	-11.2682
役に立つ	-11.2682
を立て	-11.2682
点で	-11.2682
dos	-11.2683
説明が	-11.2683
が小さい	-11.2684
2009	-11.2686
立った	-11.2687
義両親	-11.2687
目立つ	-11.2688
私の母	-11.2689
ためです	-11.2689
ストップ	-11.2689
かせる	-11.269
時間で	-11.269
姉妹	-11.269
毎に	-11.2691
デン	-11.2692
つきます	-11.2693
空いて	-11.2694
なのですから	-11.2694
と思ったので	-11.2695
的なこと	-11.2695
ご主人が	-11.2696
モテる	-11.2696
お聞かせください	-11.2697
見かける	-11.2701
医者に	-11.2701
。>>	-11.2702
ホット	-11.2702
円です	-11.2702
を少し	-11.2702
憂鬱	-11.2703
を見たら	-11.2703
合成	-11.2703
豚	-11.2704
分だけ	-11.2704
骨折	-11.2706
を見れば	-11.2708
と感じた	-11.2708
カウンター	-11.2709
場合の	-11.2709
混合	-11.271
を見ました	-11.271
は厳しい	-11.271
旅行会社	-11.2712
のかも知れません	-11.2713
幸福	-11.2714
に置いて	-11.2714
そういうもの	-11.2715
働け	-11.2715
ためにも	-11.2716
に合う	-11.2717
が必要になります	-11.2719
-5	-11.2719
チャン	-11.2719
た事	-11.272
アドバイスください	-11.272
に通い	-11.272
");	-11.272
一緒にいたい	-11.2721
応用	-11.2722
winxp	-11.2723
さないと	-11.2723
欠席	-11.2723
説明を	-11.2723
排水	-11.2724
教材	-11.2724
▁at	-11.2724
来ている	-11.2725
続けている	-11.2726
身分	-11.2726
パッド	-11.2726
ものも	-11.2726
好きなら	-11.2727
本来は	-11.2727
数時間	-11.2731
▁もし	-11.2732
明確な	-11.2733
な事	-11.2733
ns	-11.2735
たちの	-11.2736
時間以上	-11.2736
いながら	-11.2736
の問題で	-11.2738
はそのまま	-11.2738
いっても	-11.2738
は無く	-11.274
してるの	-11.274
って言われて	-11.274
みたところ	-11.2741
るようになりました	-11.2742
るとか	-11.2745
合った	-11.2745
コム	-11.2745
人見知り	-11.2747
そのあたり	-11.2747
▁from	-11.2749
いるとき	-11.2749
を終え	-11.275
pu	-11.275
叔父	-11.2751
下げて	-11.2751
危険性	-11.2751
主語	-11.2752
を作ろう	-11.2753
宜しく	-11.2753
おしっこ	-11.2754
グッズ	-11.2755
アイス	-11.2755
ニング	-11.2755
もらいます	-11.2757
陰性	-11.2757
車体	-11.2758
でもなく	-11.276
洗浄	-11.2761
てくる	-11.2761
が決まって	-11.2762
後も	-11.2763
がひどく	-11.2764
の女です	-11.2764
という形	-11.2765
加え	-11.2765
上は	-11.2765
しかないと思います	-11.2767
コンドーム	-11.2768
とは別に	-11.2768
wd	-11.2769
頭の中	-11.2769
思えます	-11.2769
なくてはならない	-11.277
ショートカット	-11.2771
携帯に	-11.2772
宜しい	-11.2772
何卒	-11.2772
いきたいと思います	-11.2774
が一般的	-11.2775
することです	-11.2777
そういう事	-11.2778
血圧	-11.2778
・・」	-11.2779
sy	-11.278
調節	-11.278
〕	-11.2781
何かしら	-11.2782
ヶ	-11.2783
ではありませんか	-11.2784
これらは	-11.2784
ムラ	-11.2785
と書いてありました	-11.2786
ウケ	-11.2786
延	-11.2788
司法書士	-11.2789
ほしいと	-11.2789
を書き	-11.279
と思っても	-11.279
かと思っています	-11.279
されており	-11.2791
こいつ	-11.2792
返事は	-11.2795
近辺	-11.2795
捨てられ	-11.2796
が早い	-11.2797
という方法	-11.2799
やれ	-11.2801
してみては	-11.2801
オオ	-11.2803
▁express	-11.2803
によっても	-11.2805
曖昧	-11.2805
発症	-11.2805
▁ヌ	-11.2805
73	-11.2806
推	-11.2806
法的	-11.2806
と思うよ	-11.2806
合意	-11.2807
スタンド	-11.2807
もたくさん	-11.2807
信頼できる	-11.2808
顔は	-11.2809
るんでしょうか	-11.2809
彼らは	-11.2809
関わって	-11.2809
託	-11.2809
クビ	-11.2812
においては	-11.2815
少なからず	-11.2815
港	-11.2819
国民の	-11.2819
興味が	-11.2821
の女の子	-11.2822
運賃	-11.2822
巡	-11.2822
出版	-11.2823
書面	-11.2823
亀	-11.2824
マック	-11.2825
とは言えません	-11.2825
病気で	-11.2828
適応	-11.2829
は基本的に	-11.283
そこが	-11.283
思い込み	-11.283
来たら	-11.2831
率が	-11.2831
が分かる	-11.2834
avi	-11.2834
したとしても	-11.2835
侵入	-11.2838
知りたいのです	-11.2838
教えて欲しいです	-11.2839
任意保険	-11.2839
気遣い	-11.284
治らない	-11.2841
そっと	-11.2841
つい最近	-11.2844
いきません	-11.2844
編入	-11.2844
辞	-11.2845
を連れて	-11.2845
ってくる	-11.2845
年です	-11.2845
ているので	-11.2847
主人も	-11.2848
がありますよね	-11.2849
他の人に	-11.2849
メアド	-11.2849
ヴ	-11.285
替えて	-11.2851
借金を	-11.2851
条件を	-11.2852
は当然	-11.2852
苦手です	-11.2856
たっぷり	-11.2857
っていない	-11.2858
イ人	-11.2858
こうして	-11.2858
魂	-11.2859
無知	-11.2859
ance	-11.286
。*	-11.2861
fl	-11.2861
感じでした	-11.2862
検査薬	-11.2862
浦	-11.2863
起動し	-11.2864
をやめ	-11.2864
不登校	-11.2864
誘	-11.2865
そうそう	-11.2866
はわかりません	-11.2866
回答有難うございます	-11.2866
迷惑メール	-11.2867
と聞きます	-11.2868
起動する	-11.2868
いち	-11.2869
頼んだ	-11.287
うえで	-11.287
読みました	-11.2871
違うのでしょうか	-11.2872
潰	-11.2873
事になりました	-11.2874
まじ	-11.2874
下がる	-11.2875
仕入れ	-11.2875
ゅ	-11.2877
万程度	-11.2877
カイ	-11.2877
雄	-11.2878
仕上げ	-11.2879
回す	-11.288
もほとんど	-11.288
をうけ	-11.288
の自由	-11.288
ものだと思います	-11.2883
以上は	-11.2887
種の	-11.2887
ィュ	-11.2888
とれる	-11.289
納付	-11.289
プル	-11.2892
を上げて	-11.2893
怒	-11.2894
も有ります	-11.2895
無いです	-11.2896
知り合って	-11.2897
商品の	-11.2897
地下	-11.2898
▁are	-11.29
高齢者	-11.2901
教えてほしいです	-11.2901
パーク	-11.2902
守って	-11.2902
入っていない	-11.2902
覚	-11.2902
地の	-11.2903
といわれた	-11.2904
年数	-11.2906
作家	-11.2908
輝	-11.2909
この状況	-11.2909
タブレット	-11.291
関節	-11.291
暖かい	-11.291
sw	-11.2912
62	-11.2912
思い出す	-11.2912
良し	-11.2913
がんばります	-11.2914
してあげ	-11.2915
で買った	-11.2915
も悪い	-11.2918
すればいいのでしょうか	-11.2919
かなー	-11.2922
時効	-11.2923
ステップ	-11.2925
が悪くなる	-11.2925
質量	-11.2928
家庭で	-11.2929
103	-11.293
お客	-11.293
ddr	-11.2932
互いに	-11.2932
も少し	-11.2933
連絡が来	-11.2933
きちんとした	-11.2934
part	-11.2934
変形	-11.2936
なもので	-11.2938
してみたい	-11.2938
地に	-11.2939
いいかも	-11.2939
心配して	-11.294
6/	-11.2941
気持ちの	-11.2942
ゴー	-11.2943
レントゲン	-11.2944
ゲン	-11.2945
目線	-11.2946
有難う御座います	-11.2946
言いますが	-11.2946
シング	-11.2947
近くで	-11.2947
ることも	-11.2947
ようにします	-11.2948
聞かれる	-11.2949
アーーー	-11.2949
(4	-11.2949
というように	-11.2949
豊富	-11.2951
させようと	-11.2952
の人と	-11.2952
はずれ	-11.2954
考えたのですが	-11.2954
お休み	-11.2955
見たのですが	-11.2955
お恥ずかしい	-11.2955
遊びに行く	-11.2957
勢い	-11.2957
引き落とし	-11.2958
が苦手	-11.2958
姿を	-11.2959
調べてみると	-11.2959
持っています	-11.2961
を始めて	-11.2961
は無かった	-11.2964
が取れ	-11.2965
止まる	-11.2966
ner	-11.2966
お聞きしたいです	-11.2967
2.5	-11.2968
エク	-11.2968
封筒	-11.2968
server	-11.2968
損害賠償	-11.2969
を得て	-11.2971
に相談する	-11.2971
含む	-11.2971
こん	-11.2972
記憶が	-11.2972
ュー	-11.2972
ア人	-11.298
艦	-11.2981
する時に	-11.2982
やったこと	-11.2983
方が良いです	-11.2984
でも良い	-11.2985
次男	-11.2985
がなくなる	-11.2986
辛かった	-11.2986
分ける	-11.2988
見つけた	-11.2988
が見つかりません	-11.2988
の値段	-11.2988
の状態で	-11.2989
で見る	-11.299
訳ではありません	-11.299
ネコ	-11.2992
た時に	-11.2992
説明不足	-11.2993
わかりますが	-11.2995
悩ま	-11.2995
しておりました	-11.2995
楽しむ	-11.2995
病院に行って	-11.2996
disk	-11.2997
ほとんどが	-11.2997
万円を	-11.2999
をきちんと	-11.2999
▁←	-11.3
好きな人に	-11.3
参考にしてください	-11.3003
スクリプト	-11.3004
仰	-11.3004
嫌いです	-11.3004
派遣先	-11.3006
オブジェクト	-11.3006
くるので	-11.3007
患者さん	-11.3008
外側	-11.3011
タイトル通り	-11.3011
テイ	-11.3012
に支障	-11.3012
奥さんの	-11.3012
エーー	-11.3013
ケイ	-11.3013
と感じて	-11.3014
買おう	-11.3014
ついつい	-11.3015
貫	-11.3018
心当たり	-11.3018
ましたら	-11.3018
好みの	-11.302
状態が	-11.302
金の	-11.3021
設	-11.3021
しつけ	-11.3021
セリフ	-11.3022
すべきか	-11.3022
皆様に	-11.3024
再発	-11.3025
紀	-11.3025
達は	-11.3025
。↓	-11.3025
見つかり	-11.3025
条件に	-11.3027
いるところ	-11.3027
はなかなか	-11.3028
ような感じです	-11.3028
構	-11.3028
階の	-11.3029
お教え下さい	-11.3031
狙	-11.3031
貼り	-11.3031
返還	-11.3031
なってきた	-11.3033
個人差	-11.3034
おられます	-11.3037
民事	-11.3038
におい	-11.3039
完治	-11.304
ない場合は	-11.3042
という点	-11.3042
大統領	-11.3042
目安	-11.3042
担保	-11.3044
所持	-11.3045
感情を	-11.3046
取らない	-11.3046
当該	-11.3047
みなさま	-11.305
ウォーキング	-11.3052
誤り	-11.3052
お盆	-11.3053
ケーブルを	-11.3053
切れる	-11.3053
犠牲	-11.3055
疾患	-11.3056
思いつく	-11.3056
ジャケット	-11.3056
を用意	-11.3057
こともありました	-11.3057
ところから	-11.3058
`)	-11.306
午前中	-11.306
文章で	-11.3061
出てきません	-11.3061
nd	-11.3062
ユメフ	-11.3062
三菱	-11.3063
答える	-11.3064
検出	-11.3064
に当たる	-11.3065
認められる	-11.3066
になるのですが	-11.3066
はそんなに	-11.3071
分離	-11.3071
デフォルト	-11.3073
変わってくる	-11.3074
思えません	-11.3074
調べたら	-11.3074
てきて	-11.3074
突っ	-11.3074
たほうが	-11.3075
プログラミング	-11.3075
美容院	-11.3075
どのようにして	-11.3075
で言えば	-11.3076
債権	-11.3077
曲げ	-11.3077
ということなので	-11.3078
遊んだり	-11.3078
くなった	-11.3078
所が	-11.3079
注意点	-11.3079
と同じような	-11.308
越え	-11.308
豪	-11.3081
うまくいかない	-11.3081
いかがですか	-11.3081
景気	-11.3083
を請求	-11.3083
ペーパー	-11.3084
par	-11.3085
経験があります	-11.3085
いいけど	-11.3086
繋ぐ	-11.3087
仲直り	-11.3089
ものすごい	-11.3089
丈	-11.3089
失敗した	-11.3091
と思われ	-11.3093
積分	-11.3094
細く	-11.3094
でもありません	-11.3095
考えずに	-11.3096
おかず	-11.3096
が出てきた	-11.3096
▁was	-11.3097
を送り	-11.3097
とあります	-11.3097
の合計	-11.3098
と言うより	-11.3099
基地	-11.3099
は全然	-11.31
で一番	-11.31
必須	-11.3101
やります	-11.3102
わからないこと	-11.3102
走行距離	-11.3102
みたいな感じで	-11.3102
拒	-11.3104
の期間	-11.3105
代は	-11.3106
が壊れて	-11.3106
ワゴン	-11.3107
英会話	-11.3108
シェ	-11.3109
文字を	-11.3109
取られ	-11.3111
トゥ	-11.3112
のほうは	-11.3113
歯科	-11.3113
金は	-11.3113
理解し	-11.3114
品物	-11.3116
休みの日	-11.3116
乱文	-11.3117
を立てて	-11.3118
が大事	-11.3119
環境は	-11.312
良いと思いますよ	-11.3121
躾	-11.3122
大学生です	-11.3122
問題で	-11.3123
診て	-11.3123
質問した	-11.3124
段々	-11.3124
嬉しかった	-11.3126
会いに	-11.3127
ラップ	-11.3127
たくなります	-11.3129
訊	-11.3129
悔しい	-11.3129
警戒	-11.3131
wo	-11.3131
三人	-11.3132
utf	-11.3134
懐	-11.3135
ao	-11.3135
にもなって	-11.3135
会社では	-11.3136
言ってくる	-11.3136
人間性	-11.3136
やっていた	-11.3136
が付く	-11.3137
もありましたが	-11.3137
kou	-11.3137
で確認	-11.3137
gen	-11.3138
おっしゃって	-11.3138
月曜日	-11.3139
?2.	-11.314
海外に	-11.314
美味しく	-11.314
私たちの	-11.3141
でもあります	-11.3141
---	-11.3142
知り合った	-11.3143
を言う	-11.3144
出します	-11.3144
綿	-11.3144
らっしゃる	-11.3145
という話を	-11.3145
が苦手な	-11.3147
比例	-11.3147
親切	-11.3148
夢を	-11.315
を要求	-11.315
遺伝	-11.315
わか	-11.3151
をご存知の方	-11.3152
∫	-11.3152
傷害	-11.3152
ないとダメ	-11.3157
安くなる	-11.3157
髪を	-11.3159
せた	-11.316
を受けている	-11.3161
でさえ	-11.3162
犬が	-11.3162
参考にさせて頂きます	-11.3164
題名	-11.3165
中古で	-11.3167
ない事	-11.3167
同い年	-11.3168
これまでの	-11.3168
朝の	-11.3169
してしまうと	-11.3169
現実に	-11.317
なんかは	-11.317
かせ	-11.3172
線が	-11.3173
くれてる	-11.3174
げる	-11.3175
丁度	-11.3175
に変え	-11.3177
カス	-11.3178
疎	-11.3179
退職金	-11.318
微妙に	-11.3181
費用を	-11.3182
繋がって	-11.3185
稼いで	-11.3185
株式会社	-11.3185
革	-11.3185
自分のことを	-11.3189
章	-11.319
景色	-11.319
経験から	-11.3195
計上	-11.3197
かもしれないです	-11.3197
収納	-11.3199
回の	-11.3199
などありましたら	-11.3199
を抱いて	-11.3199
そうゆう	-11.3201
ってしまいます	-11.3201
が結構	-11.3201
航空会社	-11.3203
uni	-11.3204
数分	-11.3204
okweb	-11.3204
形の	-11.3205
がありませんでした	-11.3205
両者	-11.3205
txt	-11.3207
聴く	-11.3209
痩せて	-11.321
思うように	-11.3212
我慢する	-11.3212
忘れました	-11.3212
不利	-11.3213
抜く	-11.3214
を調べる	-11.3215
10000	-11.3216
ガード	-11.3216
den	-11.3216
いたんですが	-11.3218
阪神	-11.3218
設け	-11.3218
も構わない	-11.3219
弟が	-11.3221
万ほど	-11.3222
おもい	-11.3223
の時代	-11.3226
されたこと	-11.3226
祝い	-11.3226
くれれば	-11.3227
ひとりで	-11.3227
になるまで	-11.3228
と思いませんか	-11.3229
ッキング	-11.323
ジョン	-11.323
女性も	-11.3231
。○	-11.3232
css	-11.3232
その通りです	-11.3232
されてしまいます	-11.3233
が終わる	-11.3233
手入れ	-11.3235
彼女とは	-11.3236
の先生に	-11.3237
vector	-11.3238
ea	-11.3238
食器	-11.3239
ホームセンター	-11.324
セックスレス	-11.3241
割り切って	-11.3242
ブート	-11.3243
体重が	-11.3243
減額	-11.3245
しつこい	-11.3246
分ほど	-11.3246
ネミ	-11.3247
周囲に	-11.3249
その子の	-11.3249
父と	-11.325
着替え	-11.325
部屋を	-11.3251
るという	-11.3251
隅	-11.3253
冷却	-11.3253
行ったら	-11.3253
ことがありますが	-11.3254
易	-11.3255
4,	-11.3255
扉	-11.3255
で悩んでいます	-11.3255
隠す	-11.3256
color	-11.3257
数百	-11.3258
取引先	-11.3258
何もしない	-11.3263
dd	-11.3264
忙しくて	-11.3266
ほぼ毎日	-11.3266
詳しくないので	-11.3267
保険金	-11.3268
話しを	-11.3268
やったら	-11.3268
腫	-11.3269
way	-11.3272
ことはありますか	-11.3274
研	-11.3275
お使いの	-11.3275
妊娠して	-11.3276
予定日	-11.3278
どうぞよろしくお願いいたします	-11.328
photoshop	-11.328
こともない	-11.328
というものが	-11.328
良いですか	-11.3281
"><	-11.3283
んですから	-11.3283
たとしても	-11.3283
補正	-11.3283
サイトは	-11.3284
いたようです	-11.3285
のペースで	-11.3285
すっかり	-11.3286
にあたり	-11.3286
外に出	-11.3288
im	-11.3288
ものなら	-11.3289
体は	-11.329
私の周り	-11.329
もできない	-11.329
尻	-11.3293
は無いでしょうか	-11.3294
くなります	-11.3295
贈	-11.3296
幾	-11.3298
幕	-11.3298
と思われて	-11.3298
▁player	-11.3298
宝	-11.3299
メールに	-11.33
することに	-11.33
太い	-11.3301
教えてくださ	-11.3301
キープ	-11.3302
を依頼	-11.3302
料金が	-11.3303
人暮らし	-11.3304
送受信	-11.3305
なんだと思います	-11.3306
を購入した	-11.3307
減る	-11.3307
年は	-11.331
オレンジ	-11.3312
求められる	-11.3312
と言われましたが	-11.3313
によるもの	-11.3313
実際のところ	-11.3314
それか	-11.3318
是非教えてください	-11.332
心の中で	-11.332
使いやすい	-11.3321
休暇	-11.3321
▁ホ	-11.3321
嫌われ	-11.3322
脂	-11.3323
災害	-11.3325
重要です	-11.3326
同じことを	-11.3326
していますので	-11.3326
いいのかな	-11.3328
亡くなって	-11.3328
かもしれないので	-11.3328
ネットの	-11.3328
曖昧な	-11.3329
現地で	-11.333
学び	-11.333
にならないように	-11.333
分かりにくい	-11.3331
8000	-11.3332
思ってる	-11.3332
いる場合	-11.3334
怒られ	-11.3334
自社	-11.3335
のアドレス	-11.3336
前まで	-11.3337
あなた自身	-11.3338
子持ち	-11.3339
結婚したら	-11.334
グラボ	-11.3341
駆け	-11.3343
安価	-11.3344
完璧に	-11.3346
掛	-11.3347
びっくりしました	-11.3347
衛生	-11.3347
ld	-11.3348
受けられる	-11.3349
人たちは	-11.335
実家で	-11.3351
psp	-11.3351
早稲田	-11.3352
キット	-11.3352
ジャック	-11.3353
暗記	-11.3354
しすぎて	-11.3355
の場	-11.3356
コンサート	-11.3356
▁ゥ	-11.3358
めた	-11.3358
内面	-11.3358
国産	-11.3359
しようとする	-11.3361
全てが	-11.3362
アメリカで	-11.3362
ふる	-11.3363
ホー	-11.3363
ご質問の	-11.3363
耐え	-11.3363
もらっています	-11.3364
顔の	-11.3364
吐き	-11.3364
パーセント	-11.3366
言ってました	-11.3366
人工	-11.3367
万円以上	-11.3367
ノーマル	-11.3369
bf	-11.3372
になりますね	-11.3374
疲労	-11.3376
目的は	-11.3377
と考えております	-11.3378
離乳食	-11.3379
放置して	-11.3379
併用	-11.338
行列	-11.338
付いている	-11.338
ヶ月前	-11.3381
ただ単に	-11.3382
自転車で	-11.3383
伝わり	-11.3383
性的	-11.3384
出てこない	-11.3384
認められ	-11.3386
いらっしゃいますか	-11.3387
aki	-11.3388
その頃	-11.3389
聞いたことがあります	-11.339
あるか	-11.339
クソ	-11.339
入ってる	-11.3391
喜	-11.3392
屋で	-11.3392
カツ	-11.3392
携帯で	-11.3394
釣	-11.3395
の道	-11.3395
クセ	-11.3395
カーテン	-11.3396
至急	-11.3396
視線	-11.3399
ストレート	-11.34
健康診断	-11.3402
普通の人	-11.3403
清掃	-11.3403
zo	-11.3405
かなあ	-11.3405
いっている	-11.3406
模様	-11.3406
一日中	-11.3407
)*	-11.3407
眼科	-11.3407
どうしたらいいか	-11.3409
気を付け	-11.3409
協議	-11.3409
鍛え	-11.3411
シャッター	-11.3411
ショックで	-11.3412
が入り	-11.3412
質問させて頂きました	-11.3413
6000	-11.3413
と診断され	-11.3414
あちら	-11.3415
と言われている	-11.3415
話し合う	-11.3416
はいらない	-11.3418
嵐	-11.3419
は無理です	-11.3422
心がけ	-11.3423
許される	-11.3424
と言うことです	-11.3425
措置	-11.3425
時間ほど	-11.3427
リラックス	-11.3428
ーア	-11.3428
韓	-11.3429
じゃなくても	-11.343
の検査	-11.343
タダ	-11.3431
vaio	-11.3431
多かった	-11.3432
エコ	-11.3433
チツ	-11.3434
が決まり	-11.3436
入り口	-11.3436
強化	-11.3436
旅行に	-11.3436
が気になって	-11.3437
陽性	-11.3438
検索して	-11.3439
好きですか	-11.3439
強調	-11.3439
した後に	-11.344
上り	-11.3441
勉強し	-11.3441
妊婦	-11.3443
復旧	-11.3444
どこも	-11.3444
強制的に	-11.3445
返却	-11.3448
民法	-11.3449
条件が	-11.3449
出入り	-11.345
ウス	-11.3451
あがり	-11.3454
というよりは	-11.3454
over	-11.3454
治安	-11.3456
糞	-11.3457
相手側	-11.3457
世界中	-11.3458
が違うので	-11.3459
一見	-11.346
達が	-11.346
とありました	-11.346
会うこと	-11.3463
function	-11.3463
▁ネ	-11.3463
いうと	-11.3464
を起こし	-11.3464
.........	-11.3464
しようと考えています	-11.3465
近所に	-11.3465
ことがないので	-11.3466
お寺	-11.3467
解く	-11.3468
をしたのですが	-11.3468
好きな人と	-11.3469
焦	-11.3469
重ね	-11.3471
=10	-11.3471
彼女がいる	-11.3472
いるだけ	-11.3473
香港	-11.3475
回答を頂き	-11.3476
文章が	-11.3477
ダビング	-11.3479
セシ	-11.348
ところまで	-11.348
震え	-11.3481
形成	-11.3482
考	-11.3483
繋が	-11.3484
アップロード	-11.3484
漠然と	-11.3485
本文	-11.3486
を読む	-11.3486
ったのですが	-11.3487
ヤマ	-11.3487
殿	-11.3489
通行	-11.3489
の内	-11.3489
書類を	-11.349
産む	-11.349
いらっしゃ	-11.349
されているのでしょうか	-11.3494
port	-11.3495
国籍	-11.3496
配布	-11.3496
会社側	-11.3496
▁2.	-11.3497
はずですが	-11.3497
敬語	-11.3497
その時点で	-11.3498
知識が	-11.3498
アナ	-11.3499
致しました	-11.3499
冷め	-11.35
説明する	-11.3501
と言うことは	-11.3501
血液型	-11.3503
うまくいって	-11.3503
方に質問です	-11.3505
が全て	-11.3505
撮って	-11.3507
嬉しく	-11.3509
口から	-11.3511
書き込んで	-11.3514
以上です	-11.3516
を勉強	-11.3516
割り勘	-11.3517
保存する	-11.3517
var	-11.3517
を着て	-11.3519
レーション	-11.352
福島	-11.352
探してみます	-11.3521
いる方	-11.3522
判明	-11.3524
store	-11.3525
起きた	-11.3525
になったとき	-11.3527
した方	-11.3527
クル	-11.3527
の価値	-11.3529
稼ぐ	-11.3529
講義	-11.3529
休め	-11.353
読める	-11.353
つもりはありません	-11.353
アドバイスよろしくお願いします	-11.3531
ゴールド	-11.3531
という方	-11.3532
をとった	-11.3533
前半	-11.3534
な性格	-11.3534
もらえ	-11.3534
元気な	-11.3537
お願いして	-11.3537
するだけ	-11.3537
縮小	-11.3538
が長い	-11.3538
夕飯	-11.3539
巡り	-11.3539
関連の	-11.354
92	-11.354
をはじめ	-11.3541
右折	-11.3543
るところ	-11.3543
みえ	-11.3544
付属の	-11.3544
気持ちに	-11.3545
龍	-11.3547
を満たす	-11.3547
ことがあるので	-11.3547
ゴミ箱	-11.355
も出	-11.355
この際	-11.355
xl	-11.3551
不可能です	-11.3552
doc	-11.3553
いいですが	-11.3555
する予定	-11.3555
いましたら	-11.3555
作れ	-11.3556
ずれ	-11.3559
の意味が	-11.3559
が気になります	-11.3562
に移動	-11.3563
は可能です	-11.3564
ってしまいました	-11.3564
押さえ	-11.3565
彼にとって	-11.3566
面白く	-11.3566
見られ	-11.3566
−1	-11.3567
日時	-11.3568
出会い系	-11.3569
うちも	-11.3569
手伝って	-11.357
厳密に	-11.357
タイトルの通り	-11.3572
されてしまいました	-11.3573
に限って	-11.3573
mode	-11.3573
2010	-11.3575
とも思って	-11.3577
ビア	-11.3577
は良く	-11.358
に書いて	-11.3581
つわり	-11.3581
家に帰って	-11.3581
センサー	-11.3583
テラ	-11.3583
良いもの	-11.3584
比べて	-11.3585
にはなって	-11.3586
入浴	-11.3586
扱う	-11.3587
が近い	-11.3587
修理代	-11.3589
るんだ	-11.359
が存在する	-11.3596
歌う	-11.3597
消す	-11.3597
単価	-11.3597
プロセス	-11.3598
が発生し	-11.3599
有効な	-11.3599
並び	-11.3599
位で	-11.36
ting	-11.36
知人の	-11.36
世界に	-11.36
▁※	-11.3601
入場	-11.3601
に電話して	-11.3601
ツールバー	-11.3602
したくありません	-11.3602
ポジション	-11.3603
をやめて	-11.3604
致	-11.3604
特性	-11.3604
張る	-11.3604
▁so	-11.3604
食生活	-11.3605
力は	-11.3605
出来ませんでした	-11.3607
保険の	-11.3607
▁st	-11.3609
痛くて	-11.3609
撮った	-11.3609
返って	-11.3611
ベット	-11.3611
いじって	-11.3612
支払った	-11.3613
車内	-11.3615
開いた	-11.3616
ようとして	-11.3617
頂ければ	-11.362
もあるのですが	-11.362
こんな感じです	-11.3623
少量	-11.3623
外国語	-11.3624
が異なる	-11.3625
+1)	-11.3626
になってきました	-11.3627
穴が	-11.3627
友人も	-11.3627
をつけた	-11.3627
ice	-11.3628
の紹介	-11.3628
申し訳	-11.3628
目が覚め	-11.3629
それまでは	-11.363
移転	-11.363
を引く	-11.3631
不自由	-11.3631
確率は	-11.3632
できなくなる	-11.3634
言ってきます	-11.3635
に切り替え	-11.3635
けない	-11.3636
母子家庭	-11.3636
言われると	-11.3636
しまうんです	-11.3636
とかそういう	-11.3636
競技	-11.3637
行動は	-11.3638
ユニット	-11.3639
固	-11.3639
してみたいと思います	-11.364
ハードウェア	-11.3643
刊	-11.3643
炊	-11.3643
デブ	-11.3644
の数字	-11.3645
いいところ	-11.3645
得られる	-11.3645
言う事	-11.3647
document	-11.3647
ラム	-11.3647
カッコ	-11.3647
誠実	-11.3648
ずる	-11.3648
下手な	-11.3649
再就職	-11.365
がいて	-11.3651
さわ	-11.3651
言葉の	-11.3651
したものです	-11.3651
をしたいのですが	-11.3651
fp	-11.3652
婚姻	-11.3653
思ったこと	-11.3653
日も	-11.3653
あり得ない	-11.3654
友情	-11.3656
使えません	-11.3656
話を聞く	-11.3657
除去	-11.3657
隣に	-11.3658
愛想	-11.3659
石鹸	-11.3659
たまには	-11.3659
風景	-11.366
精神的	-11.366
誰に	-11.3661
などから	-11.3663
国が	-11.3663
コードを	-11.3664
になりますよね	-11.3664
個の	-11.3664
接点	-11.3664
分からなくて	-11.3664
貴重なご意見	-11.3666
は確かに	-11.3667
ホン	-11.3668
このようなこと	-11.3668
住居	-11.3669
を書いた	-11.3669
ことですね	-11.3673
不調	-11.3674
万円以下	-11.3675
過去の質問	-11.3675
いいんじゃない	-11.3676
ウチの	-11.3677
まります	-11.368
ポンプ	-11.368
争	-11.368
res	-11.368
るほど	-11.3681
という表現	-11.3682
払え	-11.3683
拾	-11.3683
なかったこと	-11.3683
母も	-11.3683
本当ですか	-11.3684
暖	-11.3684
口調	-11.3685
差額	-11.3686
その都度	-11.3687
もらったら	-11.3688
飲まない	-11.3689
もう一人	-11.3689
メル	-11.3689
けん	-11.369
pentium	-11.369
ないのなら	-11.369
使用して	-11.3691
歳以上	-11.3692
私的には	-11.3693
なりますが	-11.3695
降りて	-11.3697
持ってる	-11.3698
相対	-11.3698
auto	-11.37
食べられる	-11.3702
っちゃいます	-11.3702
何年か	-11.3703
傘	-11.3703
一般的	-11.3704
繋げ	-11.3704
0.1	-11.3705
もはや	-11.3706
住んでる	-11.3706
ウイルスバスター	-11.3707
も考えて	-11.3707
開けて	-11.3708
に入ってから	-11.3708
にしようか	-11.371
落とす	-11.371
申し上げ	-11.371
スパ	-11.3711
付かない	-11.3711
ようになっています	-11.3711
誘導	-11.3712
自体に	-11.3714
水の	-11.3715
行くと	-11.3715
ジャンプ	-11.3716
続けています	-11.3717
×1	-11.3719
みないと	-11.3719
と同じで	-11.3721
潮	-11.3721
になるような	-11.3722
できませんが	-11.3722
不快	-11.3723
してくださいね	-11.3723
判断して	-11.3724
oe	-11.3726
氏の	-11.3726
栓	-11.3726
磨	-11.3727
鈍	-11.3727
カードは	-11.3727
ニャ	-11.3728
プラスチック	-11.3728
の組み合わせ	-11.3729
契約社員	-11.373
る場合	-11.3731
欲しくない	-11.3733
に乗り換え	-11.3733
半額	-11.3734
分かっています	-11.3735
やたら	-11.3735
何が原因	-11.3736
エキ	-11.3736
程の	-11.3736
予備	-11.3737
武器	-11.3737
350	-11.3737
一眼レフ	-11.3738
広げ	-11.3739
と言われたのですが	-11.3739
好きなので	-11.3739
荷	-11.3742
後期	-11.3743
配信	-11.3743
結果として	-11.3743
(5	-11.3745
リットル	-11.3745
研究室	-11.3746
shin	-11.3747
しめ	-11.3747
ウッ	-11.3747
さまざまな	-11.3748
を開く	-11.3749
部門	-11.375
量の	-11.375
dis	-11.375
の意思	-11.3751
っち	-11.3751
暫く	-11.3751
中途半端な	-11.3752
our	-11.3752
皆無	-11.3752
ゲー	-11.3754
adobe	-11.3754
というわけで	-11.3755
ループ	-11.3755
問題点	-11.3755
に手を	-11.3755
月末に	-11.3755
事もあり	-11.3756
感謝しています	-11.3757
犬は	-11.3758
声で	-11.3758
無料の	-11.3759
生理予定日	-11.3759
東京に	-11.3762
環境が	-11.3762
グラム	-11.3764
感情が	-11.3765
した際に	-11.3766
彼女のこと	-11.3768
しませんか	-11.377
われた	-11.377
は分かりません	-11.3771
揉め	-11.3773
β	-11.3773
くだ	-11.3773
アイテム	-11.3774
斜め	-11.3774
上が	-11.3775
が気になる	-11.3775
質問する	-11.3775
乙	-11.3775
嘔吐	-11.3776
塞	-11.3776
の特徴	-11.3777
はお	-11.3777
と思いつつ	-11.3777
記憶があります	-11.3777
中途半端	-11.3778
バイクの	-11.378
させられる	-11.378
***	-11.378
存在します	-11.3781
たびたび	-11.3782
多々	-11.3782
うちの子	-11.3782
洗顔	-11.3783
買え	-11.3785
態度で	-11.3785
早速の回答ありがとうございます	-11.3788
集まって	-11.3788
県の	-11.3788
持ち込み	-11.379
委託	-11.379
、“	-11.3791
そんなことは	-11.3791
しただけで	-11.3792
することになります	-11.3792
結婚も	-11.3793
ないと思いますが	-11.3793
敷金	-11.3793
へと	-11.3795
せます	-11.3797
しまうのでしょうか	-11.3797
早速のご回答ありがとうございます	-11.3798
衣	-11.3798
打って	-11.3798
芸術	-11.3799
をしているのですが	-11.3802
聞いたのですが	-11.3804
けた	-11.3807
プログラムを	-11.3807
が好きなので	-11.3808
口が	-11.3809
下さる	-11.3809
行動が	-11.381
ht	-11.381
人間です	-11.381
ネト	-11.3811
呼び出し	-11.3812
そこで質問です	-11.3813
修	-11.3814
振り込み	-11.3815
納豆	-11.3815
マザー	-11.3817
食事は	-11.3817
言おう	-11.3818
=1&	-11.3819
さんの回答	-11.382
多少は	-11.3821
恐ろしい	-11.3821
徳	-11.3822
重力	-11.3823
脅	-11.3823
幸せを	-11.3824
めば	-11.3825
分からないのですが	-11.3825
▁ma	-11.3827
ウア	-11.3827
イャ	-11.3827
読めない	-11.3828
あたりに	-11.3828
ウン	-11.3829
祈	-11.3832
と書いてあります	-11.3832
渋谷	-11.3833
仕事をする	-11.3833
マホ	-11.3836
ご利用	-11.3836
上書き	-11.3838
署名	-11.3838
名義の	-11.3839
いただけます	-11.3839
ページの	-11.3839
迷ってます	-11.384
資	-11.384
日を	-11.3841
マネ	-11.3841
出会う	-11.3841
▁『	-11.3842
が出ています	-11.3843
湿	-11.3843
回は	-11.3843
きいて	-11.3845
地位	-11.3845
しまして	-11.3845
初めから	-11.3845
機能は	-11.3847
渡して	-11.3847
もしかすると	-11.3848
家の中	-11.3848
トータル	-11.3849
詩	-11.385
微分	-11.3852
発言を	-11.3853
日頃	-11.3855
するときは	-11.3856
混ぜ	-11.3856
正義	-11.3856
スパイウェア	-11.3857
51	-11.3858
とか言う	-11.3859
セキュリティー	-11.3859
私のような	-11.386
くっ	-11.386
という風に	-11.3861
教会	-11.3863
に従って	-11.3863
頑張れ	-11.3864
国に	-11.3864
ちゃいます	-11.3864
きれ	-11.3865
暴れ	-11.3865
純粋に	-11.3867
もわからない	-11.3869
できるのは	-11.3869
女に	-11.3869
ナリ	-11.387
トマト	-11.3872
ですしね	-11.3873
ocn	-11.3873
全員が	-11.3873
性格は	-11.3874
借りる	-11.3875
いつの間にか	-11.3876
完全な	-11.3876
と考えられます	-11.3877
しかなく	-11.3878
dy	-11.3878
oc	-11.3878
苗字	-11.388
しているところ	-11.388
大切	-11.3881
のサポート	-11.3881
ぴったり	-11.3882
方が良いのでしょうか	-11.3883
▁そして	-11.3884
元気に	-11.3885
を発見	-11.3885
たくないので	-11.3886
デスク	-11.3886
方法です	-11.3887
送付	-11.3888
の頃は	-11.3888
自分の人生	-11.3888
アクセサリー	-11.3888
いくこと	-11.3889
歓迎	-11.389
女が	-11.3891
を入れると	-11.3891
基本は	-11.3892
よさそう	-11.3892
何年	-11.3892
が始まる	-11.3893
貴女は	-11.3894
おしゃれ	-11.3894
よくわかりました	-11.3894
がくる	-11.3896
合わせた	-11.3897
保存して	-11.3898
ままに	-11.3899
▁os	-11.39
実態	-11.3901
help	-11.3901
なにを	-11.3901
早速のご回答	-11.3902
良いかと思います	-11.3902
悲しいです	-11.3902
青春	-11.3903
隠れて	-11.3903
が来た	-11.3904
売ってる	-11.3906
方がいいですよ	-11.3906
姉が	-11.3907
という理由	-11.3907
聞こえて	-11.3908
抜	-11.3908
つきません	-11.3908
jsp	-11.391
ったりする	-11.3911
妹の	-11.3911
聴き	-11.3912
昨日の	-11.3912
良いですよ	-11.3912
どうすればいいですか	-11.3912
ear	-11.3914
露出	-11.3915
ブルーレイ	-11.3915
やっていける	-11.3915
default	-11.3916
礼儀	-11.3916
結婚してから	-11.3916
精神的にも	-11.3917
絡	-11.3919
を知りたい	-11.3919
分程度	-11.3921
行ったり	-11.3923
がある場合	-11.3924
メーカーに	-11.3924
保健	-11.3925
まくり	-11.3927
御回答	-11.3928
してみよう	-11.393
読ま	-11.393
してたら	-11.3932
勢いで	-11.3933
紛失	-11.3933
しましたか	-11.3937
がついた	-11.3938
ハンド	-11.3938
終わらせ	-11.3939
回答者さん	-11.394
様が	-11.3941
昨日は	-11.3942
止められ	-11.3943
でよく	-11.3944
カナダ	-11.3945
=5	-11.3946
趣味の	-11.3946
食べます	-11.3946
参考になれば幸いです	-11.3947
後悔しています	-11.3947
あるようです	-11.3947
がつきません	-11.3948
べきだ	-11.395
定年	-11.395
hl	-11.3951
パイプ	-11.3952
ラキ	-11.3952
知っている方	-11.3952
を始める	-11.3953
犬を	-11.3954
家では	-11.3954
▁k	-11.3955
ftp	-11.3955
ant	-11.3956
他人が	-11.3956
納得して	-11.3956
申し訳ないのですが	-11.3957
解決しました	-11.3957
コリ	-11.3957
彼氏がいる	-11.3957
そうか	-11.3958
浮かび	-11.3958
いただきたい	-11.3958
取られる	-11.3959
にしたら	-11.3959
年間の	-11.3959
健	-11.3959
芽	-11.396
優秀な	-11.396
侵害	-11.396
短大	-11.3961
をプレゼント	-11.3961
見ましたが	-11.3963
▁by	-11.3964
ヶ月前に	-11.3965
うるさく	-11.3965
年齢的に	-11.3966
標	-11.3966
告	-11.3966
日ほど	-11.3966
ご注意	-11.3967
をしながら	-11.3967
トコ	-11.3967
ありますでしょうか	-11.3967
夫も	-11.3969
買わない	-11.3969
mc	-11.3969
ラル	-11.3972
フランス語	-11.3972
長くなりましたが	-11.3972
(><)	-11.3973
顔に	-11.3973
不機嫌	-11.3973
誰にでも	-11.3973
悪口を	-11.3973
ls	-11.3973
のほうに	-11.3974
嫌なら	-11.3974
のかなと	-11.3975
困っております	-11.3977
したか	-11.3978
ょ	-11.3978
いる時	-11.398
あの人	-11.3982
お待ちしております	-11.3982
なしです	-11.3984
オリンピック	-11.3987
不信感	-11.3988
(←	-11.3988
嫌なこと	-11.3988
様子を見	-11.399
の名前を	-11.3991
言われたこと	-11.3991
を選択し	-11.3991
サイズが	-11.3992
にならず	-11.3992
でも良いので	-11.3993
一概に	-11.3995
撮り	-11.3995
工務店	-11.3996
を多く	-11.3996
郎	-11.3997
膣	-11.3997
がよい	-11.3998
ご教授ください	-11.3998
スライド	-11.3998
潜	-11.3999
適正	-11.3999
いるんです	-11.3999
のもあり	-11.4
時間半	-11.4002
決心	-11.4003
朝は	-11.4004
のようですね	-11.4008
初めてなので	-11.401
たときに	-11.4012
なってきて	-11.4012
city	-11.4012
らなくても	-11.4013
が続いて	-11.4013
比率	-11.4014
逸	-11.4015
私に対して	-11.4016
戻す	-11.4016
思ったのですが	-11.4017
価格が	-11.4017
を見たり	-11.4019
自分の考え	-11.4019
ics	-11.4021
かと思われます	-11.4022
知り合いに	-11.4023
良い方法	-11.4024
断言	-11.4025
アメリカ人	-11.4025
あぁ	-11.4026
ことができ	-11.4026
んだったら	-11.4027
の雰囲気	-11.4027
切断	-11.4028
旦那さんの	-11.4029
方法など	-11.4031
あわせ	-11.4031
理解できます	-11.4032
出来ること	-11.4032
条件は	-11.4033
長所	-11.4033
クター	-11.4033
cb	-11.4034
状態でした	-11.4034
試した	-11.4034
戻ってくる	-11.4035
考えられます	-11.4035
バイトの	-11.4036
ちょい	-11.4037
が終わって	-11.4037
あげたら	-11.4038
二日	-11.404
pm	-11.4041
趣旨	-11.4042
もよい	-11.4042
年齢は	-11.4042
レーザー	-11.4042
しかないでしょう	-11.4045
酔	-11.4046
と思いながら	-11.4047
とは限らない	-11.4048
こい	-11.405
鉢	-11.4052
ほうがいいです	-11.4052
その間に	-11.4055
くださって	-11.4056
〜10	-11.4056
手法	-11.4058
悪意	-11.4058
会社を辞め	-11.4059
半角	-11.406
プレゼントを	-11.406
これくらい	-11.4061
このままだと	-11.4061
痛いです	-11.4062
異常な	-11.4062
浮か	-11.4062
見せる	-11.4062
tai	-11.4064
仕事内容	-11.4065
正月	-11.4065
どん	-11.4066
医師の	-11.4067
そー	-11.4067
給料は	-11.4068
預けて	-11.4069
たいへん	-11.407
それ以外は	-11.407
問い合わせて	-11.4071
トーク	-11.4071
豆腐	-11.4072
結婚し	-11.4073
社会の	-11.4074
デッキ	-11.4074
クタ	-11.4077
確かめ	-11.4077
すれ	-11.4077
リーグ	-11.4077
看板	-11.408
万以上	-11.408
不能	-11.4081
際の	-11.4084
ーん	-11.4084
の処理	-11.4086
してあげたい	-11.4087
言われています	-11.4088
金銭的に	-11.409
use	-11.409
叩き	-11.409
コンビニで	-11.4091
漁	-11.4092
を伝えて	-11.4092
引っ越す	-11.4093
こま	-11.4093
ゥョ	-11.4093
話すと	-11.4094
いいんです	-11.4094
pre	-11.4095
書くと	-11.4097
トル	-11.4098
ない場合	-11.4099
英語は	-11.4099
司	-11.4099
地面	-11.4099
ズレ	-11.4101
恋愛対象	-11.4102
ぼう	-11.4104
なんだよ	-11.4104
交代	-11.4104
をするのは	-11.4105
の段階で	-11.4105
出かけ	-11.4106
時間をかけて	-11.4107
^(	-11.4108
面接で	-11.4109
速さ	-11.4109
周りは	-11.4109
すばらしい	-11.411
あん	-11.411
と思うこと	-11.4111
役割	-11.4111
しまったのですが	-11.4111
リハビリ	-11.4113
がありますから	-11.4113
私の実家	-11.4114
売り上げ	-11.4114
消毒	-11.4115
事前	-11.4115
いくつかの	-11.4115
額を	-11.4116
見かけます	-11.4117
進める	-11.4119
律	-11.412
ww	-11.412
台所	-11.412
怖く	-11.4121
を確保	-11.4122
離婚した	-11.4122
返信が	-11.4124
怠	-11.4124
発熱	-11.4125
がかかります	-11.4127
文学	-11.4127
はなんですか	-11.4128
そうだった	-11.4129
るつもり	-11.413
ましたので	-11.4131
ご回答いただき	-11.4131
趣味で	-11.4132
箸	-11.4132
エピソード	-11.4133
にもなります	-11.4134
を設定	-11.4134
感じています	-11.4135
を選び	-11.4136
たび	-11.4136
はあった	-11.4136
金持ち	-11.4136
キャンプ	-11.4136
by	-11.4137
いただきありがとうございました	-11.4139
人権	-11.414
mini	-11.4141
で接続	-11.4141
結婚しました	-11.4142
使用しています	-11.4143
卒業後	-11.4144
に行った時	-11.4144
先輩が	-11.4144
動け	-11.4146
書き込む	-11.4148
かみ	-11.4151
なのだ	-11.4151
enter	-11.4153
経路	-11.4153
友だち	-11.4154
渋	-11.4155
話せ	-11.4155
危	-11.4158
近づいて	-11.4158
詰まって	-11.4158
言うのは	-11.4159
仕事中	-11.4159
ずれて	-11.416
に関わる	-11.416
良いですね	-11.416
があるのなら	-11.4161
色は	-11.4161
年ほど前	-11.4162
はないですが	-11.4162
しか無い	-11.4163
▁ウ	-11.4163
かかりました	-11.4163
通し	-11.4166
たいと	-11.4167
対象外	-11.4167
演技	-11.4168
サイクル	-11.4168
もらったり	-11.4168
お兄さん	-11.4171
は必要です	-11.4172
:0	-11.4172
navi	-11.4174
ケケ	-11.4175
何かと	-11.4175
";	-11.4176
だと思っていました	-11.4176
ショックです	-11.4176
歳くらい	-11.4177
落ち着いた	-11.4177
貢献	-11.4181
耐	-11.4182
iso	-11.4182
望む	-11.4183
働きたい	-11.4184
world	-11.4185
ネット上で	-11.4186
も違う	-11.4187
吠え	-11.4188
〜〜〜	-11.4189
と考えると	-11.4189
一時期	-11.4189
疲れている	-11.419
仙台	-11.4191
みてはどうでしょうか	-11.4191
あとで	-11.4191
原作	-11.4191
生涯	-11.4192
博	-11.4192
独り	-11.4192
ご祝儀	-11.4193
書いてありました	-11.4193
そうしたら	-11.4195
^3	-11.4197
に問い合わせて	-11.4197
レール	-11.4197
抜けて	-11.4198
時もあります	-11.42
いただければと思います	-11.4201
クション	-11.4201
やばい	-11.4202
番号を	-11.4204
その上	-11.4206
らしいですが	-11.4207
申告書	-11.421
キャン	-11.421
偉い	-11.4211
しているのです	-11.4211
上司は	-11.4211
怒られる	-11.4211
すく	-11.4212
を引いて	-11.4212
行われる	-11.4214
取り寄せ	-11.4214
おめでとうございます	-11.4214
よいです	-11.4214
を覚えて	-11.4215
意味合い	-11.4215
sai	-11.4216
other	-11.4216
ダメなら	-11.4216
ョウ	-11.4217
政党	-11.4217
する事が	-11.4218
タレント	-11.4219
面倒な	-11.422
5,000	-11.4221
台風	-11.4221
圧倒的に	-11.4221
内心	-11.4221
激しく	-11.4221
行い	-11.4223
学生の	-11.4224
一流	-11.4224
ここ最近	-11.4224
殺す	-11.4225
ベンチ	-11.4225
実に	-11.4226
及	-11.4226
当選	-11.4227
猫は	-11.4228
思っていました	-11.4228
追求	-11.4229
形式で	-11.4231
再開	-11.4231
で買う	-11.4232
お墓	-11.4233
boot	-11.4233
伊	-11.4234
些細なこと	-11.4235
を行った	-11.4236
呼ばれ	-11.4236
その様な	-11.4237
学生です	-11.4237
本人も	-11.4237
化粧水	-11.4238
カョ	-11.4238
now	-11.4239
犯罪者	-11.424
が無いと	-11.4241
はどれくらい	-11.4241
執着	-11.4243
▁1.	-11.4244
xy	-11.4245
82	-11.4245
反日	-11.4246
仮定	-11.4247
フラッシュ	-11.4247
××	-11.4248
チト	-11.4249
大学を	-11.425
が低く	-11.4251
わけない	-11.4251
座標	-11.4252
お金で	-11.4252
999	-11.4252
負けて	-11.4252
可愛	-11.4253
がよくわかりません	-11.4253
キチンと	-11.4254
これなら	-11.4254
モミ	-11.4255
輩	-11.4255
つかず	-11.4256
集まる	-11.4257
彼のことを	-11.4259
必要なもの	-11.4261
目当て	-11.4262
いるようですが	-11.4263
見つかる	-11.4263
るけど	-11.4264
なにが	-11.4265
決まる	-11.4265
しまうのは	-11.4266
もないです	-11.4267
大丈夫なのでしょうか	-11.4268
お誘い	-11.4269
を忘れて	-11.4272
▁can	-11.4272
戦い	-11.4272
アダプター	-11.4272
何もない	-11.4273
載せ	-11.4274
オシャレ	-11.4276
承認	-11.4276
意味がある	-11.4276
時間と	-11.4276
検察	-11.4276
軍事	-11.4277
縛	-11.4278
登録して	-11.4278
苦情	-11.4279
ズボン	-11.4279
水素	-11.4281
糖尿病	-11.4281
電話は	-11.4281
ご存知の方がいらっしゃいましたら	-11.4283
接続する	-11.4283
active	-11.4284
がなかったので	-11.4285
壊れた	-11.4286
失業保険	-11.4286
連中	-11.4288
愛している	-11.4289
アメリカに	-11.4289
を始めた	-11.429
cf	-11.429
電球	-11.4291
ファミリー	-11.4292
頂ければ幸いです	-11.4292
考え方が	-11.4294
するのです	-11.4294
気になり	-11.4294
上達	-11.4295
曲名	-11.4295
総務	-11.4296
が付いている	-11.4296
置き換え	-11.4298
を始め	-11.4299
どうなっている	-11.4299
お勧めです	-11.4299
1/3	-11.4299
載せて	-11.4299
のお話	-11.43
刃	-11.4301
震災	-11.4303
他の方も	-11.4304
小学校の	-11.4304
土地の	-11.4305
混んで	-11.4306
面倒くさい	-11.4306
わけではないのですが	-11.4306
かかっている	-11.4307
が発生して	-11.4307
gif	-11.4308
と言うのが	-11.4309
系列	-11.4309
を見つけました	-11.431
ア回	-11.431
の都合で	-11.431
就職先	-11.431
のようですが	-11.4311
ストレッチ	-11.4311
ax	-11.4311
受け止め	-11.4312
免許証	-11.4312
廃棄	-11.4313
のは当たり前	-11.4313
は十分	-11.4315
の良さ	-11.4315
移動する	-11.4316
なんてこと	-11.4317
治療を	-11.4317
あたりの	-11.4317
ったこと	-11.4317
復	-11.4318
ef	-11.4318
お会い	-11.4318
はるかに	-11.4318
%2	-11.4319
近隣	-11.4319
の内容を	-11.432
を考えた	-11.4321
惜し	-11.4322
妹は	-11.4324
tom	-11.4324
拠	-11.4325
ようですので	-11.4326
整数	-11.4327
してあります	-11.4327
万キロ	-11.4327
不安が	-11.4328
エス	-11.4329
8&	-11.4329
国債	-11.4329
も少ない	-11.433
洋楽	-11.433
言うように	-11.433
ドラム	-11.4331
貧	-11.4333
気付いた	-11.4333
拝	-11.4334
両方の	-11.4335
学問	-11.4335
若い頃	-11.4336
世紀	-11.4337
痩せる	-11.4337
心配な	-11.4337
tokyo	-11.4338
シェア	-11.4339
等級	-11.434
がっかり	-11.4342
のバランス	-11.4342
距離が	-11.4342
と考えた	-11.4343
奈良	-11.4344
もあるかもしれません	-11.4344
回も	-11.4344
を楽しむ	-11.4345
タワー	-11.4345
創価学会	-11.4347
か心配です	-11.4349
なぜでしょうか	-11.4349
タル	-11.435
が安い	-11.4351
いないと思います	-11.4352
のとおり	-11.4352
国公立	-11.4353
どうなって	-11.4354
たくても	-11.4354
去	-11.4355
ものもあります	-11.4355
マリ	-11.4355
解析	-11.4356
思	-11.4357
make	-11.4357
ヘツ	-11.4358
ディレクトリ	-11.4358
別れを	-11.436
狙い	-11.4361
乗り越え	-11.4361
able	-11.4362
がとれ	-11.4362
に記載	-11.4362
彼氏も	-11.4363
されるのが	-11.4363
なくなったら	-11.4364
切れて	-11.4364
になれない	-11.4364
表示されます	-11.4365
か悩んでいます	-11.4365
々しい	-11.4366
ないのかな	-11.4366
童	-11.4367
ure	-11.4368
若く	-11.4368
確認しました	-11.4368
を作成して	-11.4369
ぶれ	-11.437
イ年	-11.437
好意を	-11.437
無知な	-11.4371
使わ	-11.4371
言わせ	-11.4372
頂ける	-11.4372
当たった	-11.4373
訴	-11.4374
殺し	-11.4374
は既に	-11.4375
が見えて	-11.4376
▁ソ	-11.4376
家を出て	-11.4377
股	-11.4377
日本人が	-11.4378
お前が	-11.4378
誕生	-11.4379
現在も	-11.4381
ノホ	-11.4381
るため	-11.4382
関わる	-11.4383
止めた	-11.4384
ことなのでしょうか	-11.4384
するつもりです	-11.4386
ということですよね	-11.4386
があるため	-11.4386
シロ	-11.4386
残ります	-11.4387
四角	-11.4387
届かない	-11.4388
を抜いて	-11.4389
彼の家	-11.4389
ことはないと思います	-11.439
保有	-11.439
は変わらない	-11.439
お子さんの	-11.4392
麻	-11.4393
ことなく	-11.4393
反省して	-11.4393
積み	-11.4393
お薬	-11.4394
を開けて	-11.4394
血が	-11.4395
銀行に	-11.4397
病名	-11.4399
人がいて	-11.4399
飼う	-11.4399
するより	-11.44
の部分が	-11.44
前職	-11.44
いくらくらい	-11.4402
という形で	-11.4402
テナ	-11.4403
総理	-11.4404
譲って	-11.4406
いくらか	-11.4406
くと	-11.4407
農業	-11.4407
of	-11.4409
kin	-11.441
尽く	-11.441
起こり	-11.441
しているもの	-11.4411
の作成	-11.4411
の出来事	-11.4412
ことを言う	-11.4414
質問があります	-11.4415
ッョ	-11.4416
明確に	-11.4416
確	-11.4417
早々	-11.4418
乗った	-11.4419
別れたくない	-11.442
締	-11.442
意欲	-11.442
話し合いを	-11.4421
法で	-11.4422
ig	-11.4422
催促	-11.4425
ということになる	-11.4428
打つ	-11.4429
設定で	-11.4429
詳細は	-11.4432
ラベル	-11.4432
というのであれば	-11.4434
岸	-11.4435
あっさり	-11.4435
旅館	-11.4435
ws	-11.4436
ある人	-11.4436
宗	-11.4436
ウカ	-11.4437
ッタ	-11.4438
忌	-11.4439
んの	-11.4439
あきらめて	-11.4439
あなたにとって	-11.4439
外科	-11.4439
女の子に	-11.4439
学校は	-11.444
洗濯物	-11.4442
という状況	-11.4442
するようになりました	-11.4442
商品が	-11.4442
のやりとり	-11.4443
と違い	-11.4443
お宅	-11.4444
ささ	-11.4445
方法があれば	-11.4445
正面	-11.4446
度も	-11.4446
を理解して	-11.4447
大量の	-11.4447
を元に	-11.4448
ばれ	-11.4448
親切な	-11.4449
さし	-11.445
されていますか	-11.4451
というので	-11.4451
文庫	-11.4452
航	-11.4453
キュー	-11.4454
塗る	-11.4454
いいですよね	-11.4455
万で	-11.4455
身近な	-11.4456
沸	-11.4457
から見れば	-11.4457
であろうと	-11.4457
感じが	-11.4459
機能を	-11.4459
▁new	-11.446
消費者	-11.446
gl	-11.446
ju	-11.4461
なと思います	-11.4462
が減って	-11.4462
嘘をついて	-11.4463
アース	-11.4463
に戻す	-11.4464
だったため	-11.4464
表示されません	-11.4464
start	-11.4465
初心者なので	-11.4466
についての質問です	-11.4466
をお持ちの方	-11.4468
向いて	-11.4468
くれています	-11.4468
彼の事	-11.4471
合わせる	-11.4471
▁ー	-11.4472
だと思っている	-11.4473
感じない	-11.4473
option	-11.4474
見つめ	-11.4474
どうすればいいのか	-11.4475
見つかった	-11.4475
って思った	-11.4475
買いました	-11.4476
ウウ	-11.4478
進展	-11.4478
関係ありません	-11.4479
固め	-11.4479
だったと	-11.4481
と同	-11.4481
式を	-11.4482
って言われました	-11.4484
していきます	-11.4485
不要な	-11.4487
長い間	-11.4487
/6	-11.4488
の基本	-11.4488
how	-11.4488
とらえ	-11.449
左手	-11.4492
文を	-11.4492
同情	-11.4492
結構な	-11.4492
に変える	-11.4493
こだわ	-11.4493
いっそ	-11.4494
今の状態	-11.4494
ob	-11.4494
ポイントは	-11.4494
したから	-11.4494
でも同じ	-11.4495
が起きる	-11.4496
心がけて	-11.4496
権力	-11.4497
大量	-11.4497
かはわかりませんが	-11.4497
だけでした	-11.45
堅	-11.45
年ほど前に	-11.4501
つり	-11.4502
なってしまい	-11.4503
三角形	-11.4504
とおもって	-11.4507
しなくていい	-11.4507
xxx	-11.4508
二人きり	-11.4509
重さ	-11.4511
こと自体	-11.4512
の意見を	-11.4512
僕に	-11.4513
も仕方ない	-11.4515
exp	-11.4517
教えていただきたい	-11.4518
▁(2)	-11.4522
のコピー	-11.4522
が見つかる	-11.4526
うな	-11.4527
真面目	-11.4528
アトピー	-11.4529
膿	-11.4529
彼女には	-11.4529
磁	-11.4529
災	-11.453
争い	-11.453
ることができる	-11.4531
就業	-11.4531
を抱えて	-11.4534
父親は	-11.4534
チューブ	-11.4535
クッ	-11.4535
こともありますが	-11.4536
あいつ	-11.4536
終わりに	-11.4536
tra	-11.4537
のプロパティ	-11.4539
が見える	-11.4541
真っ白	-11.4543
押して	-11.4544
nc	-11.4545
利点	-11.4546
が知りたいです	-11.4547
ou	-11.4549
さずに	-11.455
を置く	-11.4551
話したり	-11.4551
なのではないでしょうか	-11.4551
物事	-11.4552
ビス	-11.4553
check	-11.4554
予定で	-11.4556
あげよう	-11.4557
ミナ	-11.4559
だとおもいます	-11.4559
した際	-11.456
ないのであれば	-11.456
遅くなる	-11.4561
してもらいたい	-11.4561
国は	-11.4561
労災	-11.4562
ますけど	-11.4563
base	-11.4563
life	-11.4563
ひっ	-11.4564
きく	-11.4564
お母さんに	-11.4566
弁護士さん	-11.4566
残っています	-11.4568
そう思います	-11.4568
美術	-11.4569
ない状態	-11.4569
遠距離恋愛	-11.4569
呼ぶ	-11.457
静かに	-11.4571
行動に	-11.4572
生成	-11.4573
女の子の	-11.4574
銘柄	-11.4574
引っ越して	-11.4574
と思っていたので	-11.4575
らなくて	-11.4575
会社と	-11.4578
典	-11.4579
しようと思うのですが	-11.4582
するためには	-11.4584
捜査	-11.4587
径	-11.4587
なくなってしまいます	-11.4588
本当でしょうか	-11.4588
それによって	-11.459
let	-11.459
週間くらい	-11.4591
を作りたい	-11.4592
列の	-11.4593
ブーツ	-11.4593
怒鳴り	-11.4593
直後に	-11.4594
0°	-11.4594
になった場合	-11.4594
のやり方	-11.4595
テクニック	-11.4595
そんな中	-11.4596
引け	-11.4597
オイ	-11.4598
起訴	-11.4598
相手の女性	-11.4599
初日	-11.46
も考えています	-11.4603
誤差	-11.4605
ドロップ	-11.4608
たまって	-11.4608
なしの	-11.4609
青い	-11.4611
に行か	-11.4611
こんな感じで	-11.4611
区分	-11.4612
名前で	-11.4613
紐	-11.4613
ヨーグルト	-11.4614
寂しく	-11.4614
誠に	-11.4615
しそうな	-11.4615
奥さんと	-11.4616
おっ	-11.4617
別れ話	-11.4619
の後に	-11.462
が違って	-11.4621
疑う	-11.4622
優勝	-11.4623
上がります	-11.4624
してくれている	-11.4624
感謝します	-11.4624
兄が	-11.4625
したほうが良い	-11.4625
梅	-11.4626
ケ月	-11.4626
show	-11.4626
生きてる	-11.4626
疑問に思った	-11.4628
▁ッ	-11.4629
二度	-11.4631
いつかは	-11.4632
振られて	-11.4632
おうと	-11.4632
じゃないです	-11.4633
文句を	-11.4634
で済む	-11.4634
のご意見	-11.4634
は全部	-11.4635
光熱費	-11.4636
御礼	-11.4636
日の朝	-11.4636
がありますね	-11.4638
飲ま	-11.4639
の事です	-11.464
とは言いません	-11.464
日後	-11.4641
sf	-11.4642
yes	-11.4642
認	-11.4642
働いていた	-11.4645
ませんので	-11.4645
削減	-11.4645
アマゾン	-11.4646
sha	-11.4646
危機	-11.4648
上級	-11.4648
夏の	-11.4649
質問させて頂きます	-11.465
一般論	-11.4651
dll	-11.4651
境界	-11.4655
私の中で	-11.4655
か教えてください	-11.4655
質問者の	-11.4655
ご近所	-11.4655
やめよう	-11.4657
hy	-11.4657
結婚相手	-11.4657
フェラ	-11.4657
が沢山	-11.4657
の方が多い	-11.4657
幸	-11.4658
期待して	-11.4659
先程	-11.4659
お伺い	-11.4661
他者	-11.4662
何もかも	-11.4662
しようとしている	-11.4665
お腹の	-11.4666
lib	-11.4667
の製品	-11.4668
体調不良	-11.4669
被保険者	-11.4669
を切る	-11.4669
であることは	-11.4671
合える	-11.4671
モナ	-11.4672
収入は	-11.4672
発作	-11.4673
printf	-11.4673
限度	-11.4674
剃	-11.4675
酔い	-11.4677
留め	-11.4677
乗っている	-11.4677
思い当たる	-11.4677
考えられ	-11.4677
zz	-11.4678
上げた	-11.4678
持参	-11.4679
気付か	-11.468
alt	-11.468
苦しんで	-11.468
集計	-11.4681
に行け	-11.4681
息子に	-11.4681
配管	-11.4683
供	-11.4684
適当	-11.4685
前後の	-11.4686
唯一の	-11.4686
を動かす	-11.4688
抜ける	-11.4688
高校で	-11.4689
妊娠した	-11.4689
言うのも	-11.469
ないのですか	-11.469
いただけると嬉しいです	-11.469
感覚が	-11.4691
抜いた	-11.4691
ティッシュ	-11.4691
方がいましたら	-11.4692
避けられ	-11.4693
お母さんの	-11.4693
言うなら	-11.4694
交換する	-11.4694
つもりでした	-11.4694
いいえ	-11.4694
めっちゃ	-11.4695
dim	-11.4695
している場合	-11.4696
使わず	-11.4697
株価	-11.4697
ゼミ	-11.4699
改行	-11.4699
gh	-11.4699
と書かれて	-11.4701
こんなの	-11.4702
方には	-11.4703
逢	-11.4703
眠り	-11.4704
をあげる	-11.4705
させます	-11.4706
何て	-11.4706
たくないです	-11.4706
塊	-11.4707
言いたいこと	-11.4707
こうなる	-11.4708
本屋	-11.4708
同じ職場	-11.4708
溜め	-11.4709
意外に	-11.4709
ロボット	-11.471
どこを	-11.4712
の内容は	-11.4712
が増えた	-11.4713
わん	-11.4713
進めて	-11.4715
の例	-11.4715
離れている	-11.4715
歯が	-11.4717
を指定	-11.4721
誘われて	-11.4722
この言葉	-11.4722
その会社	-11.4724
やん	-11.4727
過去問	-11.4727
誰もが	-11.4728
pri	-11.4728
生えて	-11.4729
","	-11.4732
親として	-11.4733
切れない	-11.4734
▁dim	-11.4735
パナソニック	-11.4735
cad	-11.4737
相変わらず	-11.4738
ということに	-11.4738
濃	-11.4739
よくわかります	-11.4741
悪い事	-11.4744
お試し	-11.4744
おやつ	-11.4744
されたもの	-11.4746
右手	-11.4746
に書いてある	-11.4747
を伝える	-11.4748
障	-11.4748
イト	-11.4748
動いている	-11.4749
▁time	-11.475
その後に	-11.4751
いずれにせよ	-11.4752
が痛い	-11.4752
生理が来	-11.4752
にあって	-11.4752
いいと思いますか	-11.4754
どの様に	-11.4754
が減る	-11.4754
良いこと	-11.4754
を避ける	-11.4755
結納	-11.4755
を抑える	-11.4755
行きましょう	-11.4755
戦後	-11.4756
__	-11.4756
明記	-11.4756
気づく	-11.4756
歩道	-11.4756
べきなのか	-11.4758
シス	-11.4758
yama	-11.4759
切手	-11.4759
しておいた	-11.4759
腰痛	-11.476
限りでは	-11.4761
取り込み	-11.4761
geforce	-11.4761
という内容	-11.4762
しかないです	-11.4763
本は	-11.4763
扱われ	-11.4763
結婚式に	-11.4764
考えてください	-11.4764
調べたのですが	-11.4765
番目の	-11.4765
探せば	-11.4765
珍しく	-11.4766
あたりで	-11.4766
小遣い	-11.4766
終え	-11.4768
ヘル	-11.4769
従来	-11.4769
版の	-11.477
まち	-11.4771
ハメ	-11.4771
トイレの	-11.4772
という考え方	-11.4772
ボルト	-11.4773
どの程度の	-11.4773
毎朝	-11.4775
くれば	-11.4775
どの様な	-11.4775
女性として	-11.4776
状態を	-11.4776
倉	-11.4776
二回	-11.4777
解る	-11.4779
変わってきます	-11.478
を認め	-11.4781
をしようと	-11.4781
の幅	-11.4782
事が出来る	-11.4782
費や	-11.4782
目の前に	-11.4783
問いません	-11.4784
彼のこと	-11.4784
が切れて	-11.4784
できるなら	-11.4785
大した	-11.4785
を作成し	-11.4786
お聞きします	-11.4786
破産	-11.4786
妹さん	-11.4787
なると思います	-11.4788
デザイナー	-11.4788
クョ	-11.4791
名は	-11.4791
地方の	-11.4792
頑張った	-11.4793
になるように	-11.4794
強要	-11.4795
姉は	-11.4796
お前の	-11.4796
遅れる	-11.4796
作戦	-11.4796
ヘン	-11.4796
はずの	-11.4797
イーーー	-11.4797
こなして	-11.4799
受け入れる	-11.48
一通り	-11.48
20%	-11.4801
費用が	-11.4805
カーー	-11.4805
ンと	-11.4805
先ず	-11.4806
撮	-11.4808
メイ	-11.4809
運動を	-11.481
dai	-11.4811
と思っているので	-11.4813
されますが	-11.4813
式場	-11.4814
の半分	-11.4814
は良くない	-11.4815
width	-11.4816
いかがでしょう	-11.4816
と思うのは	-11.4816
コンテンツ	-11.4817
ゴール	-11.4817
91	-11.4818
001	-11.4818
体重は	-11.4819
思わ	-11.482
栄	-11.482
されてない	-11.482
わかりませんでした	-11.4822
と話して	-11.4824
働いています	-11.4824
mr	-11.4824
規	-11.4825
先を	-11.4826
側面	-11.4827
アタック	-11.4827
なくなったり	-11.4828
スマート	-11.4829
は有りません	-11.4829
に乗っています	-11.4829
親戚の	-11.483
したあと	-11.4831
経験した	-11.4831
お詳しい方	-11.4833
コンポ	-11.4834
送金	-11.4835
デス	-11.4836
誤って	-11.4836
柔軟	-11.4837
聞いたり	-11.4838
できるようになる	-11.4838
と云う	-11.4839
記念日	-11.4841
cg	-11.4841
いつもお世話になっております	-11.4844
といえる	-11.4845
外交	-11.4845
の心配	-11.4846
私自身が	-11.4847
じっと	-11.4847
ざる	-11.485
炒め	-11.485
たから	-11.485
になるかもしれません	-11.4852
の数値	-11.4853
流れて	-11.4854
繋ぎ	-11.4854
売れる	-11.4856
でしたよ	-11.4857
の強い	-11.4857
身を	-11.4858
幼い	-11.486
を考慮	-11.4862
見られます	-11.4864
したいなら	-11.4864
希	-11.4865
良好	-11.4866
女と	-11.4867
フォルダー	-11.4869
が大好きで	-11.4871
好き嫌い	-11.4872
方が多い	-11.4873
らしいのです	-11.4873
大臣	-11.4874
5%8	-11.4875
何かあった	-11.4875
習って	-11.4875
ふたり	-11.4876
につながる	-11.4877
思わせ	-11.4877
揃って	-11.4877
のデータを	-11.4877
しかないので	-11.4879
シャープ	-11.4881
の低い	-11.4882
のようで	-11.4883
なおす	-11.4883
ねん	-11.4883
たくさんある	-11.4884
をもらう	-11.4884
ランキング	-11.4886
炎症	-11.4886
≧	-11.4886
新婚	-11.4887
やさしい	-11.4888
キレイ	-11.4889
富	-11.489
あれば教えてください	-11.489
以降の	-11.4894
恋愛は	-11.4894
めん	-11.4894
日くらい	-11.4894
を読んだ	-11.4894
がでます	-11.4895
安易に	-11.4895
お聞かせ下さい	-11.4896
持て	-11.4896
はあっても	-11.4896
コッッョョッッッ	-11.4898
どのようにしたら	-11.4898
に通っています	-11.4898
してるので	-11.4899
方法も	-11.4899
受け止めて	-11.4899
を支払う	-11.4899
着いて	-11.49
方法を教えて下さい	-11.49
に該当する	-11.4901
欲しく	-11.4902
の基準	-11.4906
羨ましい	-11.4906
^2)	-11.4906
郷	-11.4907
いないようです	-11.4907
しまったこと	-11.4908
ってどんな	-11.4909
東京で	-11.4909
cells	-11.491
を飲み	-11.491
束	-11.4911
を提供	-11.4911
エンジンが	-11.4913
私個人	-11.4913
感じません	-11.4913
燃焼	-11.4913
イヤホン	-11.4914
るようになる	-11.4914
170	-11.4914
相談した	-11.4916
金曜日	-11.4918
判る	-11.4918
顔で	-11.4919
飲みに	-11.492
寒く	-11.492
ボロボロ	-11.4921
学会	-11.4922
順位	-11.4922
月々	-11.4923
と思うようになりました	-11.4925
ならともかく	-11.4926
特許	-11.4927
我が子	-11.4928
それ以上の	-11.4929
ッター	-11.4929
義姉	-11.4929
が悪くて	-11.493
塗	-11.493
守り	-11.4931
マップ	-11.4931
締め切り	-11.4932
〜2	-11.4933
られても	-11.4934
大丈夫な	-11.4934
さんを	-11.4935
申し立て	-11.4935
粘	-11.4935
数年前に	-11.4936
ほどです	-11.4936
命を	-11.4937
削除して	-11.4938
課長	-11.4939
っちゃった	-11.494
立てて	-11.4941
組み立て	-11.4941
架	-11.4942
挙	-11.4943
好きではない	-11.4943
年頃	-11.4945
を止め	-11.4946
函館	-11.4947
物体	-11.4948
まっている	-11.4949
気力	-11.4951
形容詞	-11.4951
も出来ない	-11.4952
メールを送って	-11.4952
検討してみます	-11.4953
水に	-11.4953
対応して	-11.4953
答えを	-11.4954
いまは	-11.4954
コミ	-11.4956
どれぐらい	-11.4956
彩	-11.4956
ことがわかりました	-11.4956
休業	-11.4957
説教	-11.4958
快適に	-11.4958
やめました	-11.4958
カレ	-11.4959
に行くこと	-11.4959
どのようにすれば	-11.496
が得られ	-11.496
皆さんなら	-11.4961
もらいましょう	-11.4961
ニッ	-11.4961
した所	-11.4962
性交	-11.4963
このあたり	-11.4964
はしたくない	-11.4966
toeic	-11.4967
うんざり	-11.4967
許せ	-11.4967
欠け	-11.4968
連帯保証人	-11.4969
を身につけ	-11.4969
電源を	-11.497
を自分で	-11.497
唇	-11.497
ようになってしまいました	-11.4972
俳優	-11.4972
繰り返す	-11.4973
行かれる	-11.4974
することができる	-11.4976
こっそり	-11.4981
るかどうか	-11.4982
▁ヨ	-11.4983
人に対して	-11.4983
楽しそう	-11.4984
点です	-11.4985
・・?	-11.4986
が落ちて	-11.4986
尚更	-11.4986
▁20	-11.4988
伝えたい	-11.4988
業者が	-11.4988
エクセルで	-11.4988
落ち込み	-11.4991
落とされ	-11.4992
も考えられます	-11.4994
クク	-11.4994
ori	-11.4995
帰ってきた	-11.4996
ついに	-11.4997
式は	-11.4998
気になりました	-11.4998
しなきゃ	-11.4998
クール	-11.4998
プレス	-11.4999
の設定を	-11.5
理由がある	-11.5001
イチ	-11.5001
親を	-11.5003
自体の	-11.5004
送れ	-11.5004
それ以外に	-11.5005
名前の	-11.5005
bar	-11.5006
問題に	-11.5007
系は	-11.5008
不妊治療	-11.5008
境遇	-11.5008
。>「	-11.5009
住んでいた	-11.5009
は殆ど	-11.501
思いつきません	-11.501
私でも	-11.501
時くらい	-11.5011
ませんね	-11.5011
彼氏がいます	-11.5013
分からなくなって	-11.5013
があるかどうか	-11.5014
先生と	-11.5015
事もある	-11.5015
なってしまった	-11.5015
tech	-11.5016
と同様	-11.5017
放射線	-11.5018
▁we	-11.5018
酷く	-11.5018
はいかがでしょう	-11.5019
出すと	-11.5019
信頼関係	-11.502
体操	-11.502
機種変更	-11.5021
早期	-11.5021
代で	-11.5021
気も	-11.5021
独自	-11.5022
部分で	-11.5024
筈です	-11.5024
者で	-11.5024
どんな人	-11.5025
チェンジ	-11.5027
不自然	-11.5028
sns	-11.5028
彼がいます	-11.5028
たのか	-11.5029
二年	-11.5031
今の状況	-11.5031
ラッキー	-11.5032
も見	-11.5032
profile	-11.5032
ドー	-11.5033
隠れ	-11.5033
人たちが	-11.5035
あたりから	-11.5036
不在	-11.5038
成田	-11.5039
法定	-11.504
年前から	-11.504
応答	-11.5041
ったりして	-11.5041
に見えます	-11.5041
の少ない	-11.5042
定数	-11.5043
何時間	-11.5043
穏やか	-11.5044
無視する	-11.5045
自信がありません	-11.5046
尽き	-11.5047
恨み	-11.5047
まとめる	-11.5048
無理矢理	-11.5049
ばん	-11.5049
add	-11.505
▁id	-11.505
▁int	-11.505
を強く	-11.505
作曲	-11.5051
思ったり	-11.5051
であったり	-11.5052
は無いです	-11.5052
尊重	-11.5053
content	-11.5054
学期	-11.5054
おまけに	-11.5055
ご質問者様	-11.5055
ぐらいは	-11.5056
自分としては	-11.5057
▁value	-11.506
ご助言	-11.506
ここが	-11.506
セーフモード	-11.506
感想を	-11.506
作成した	-11.5061
尊	-11.5061
見当たりません	-11.5061
から見ると	-11.5061
があった場合	-11.5061
誘われた	-11.5061
一体何	-11.5062
急ぎ	-11.5062
ケオ	-11.5065
楽譜	-11.5066
エラーメッセージ	-11.5066
気持ち悪く	-11.5067
お礼の	-11.5068
作者	-11.5068
難易度	-11.5071
すすめ	-11.5075
は必要ない	-11.5075
芯	-11.5076
などという	-11.5078
おいた方がいい	-11.5078
しているから	-11.5079
夏に	-11.508
男性も	-11.5081
たいと考えています	-11.5081
見てください	-11.5082
取り扱い	-11.5083
微妙	-11.5083
のがベスト	-11.5085
この曲	-11.5086
月中旬	-11.5086
なくなってしまった	-11.5086
を覚える	-11.5087
履	-11.5088
ec	-11.5089
二人目	-11.5091
抗議	-11.5091
統	-11.5091
かなと思っています	-11.5092
飛ぶ	-11.5094
ぐらいしか	-11.5095
生活の	-11.5095
若しくは	-11.5096
をみると	-11.5096
加減	-11.5097
旦那さんが	-11.5098
電動	-11.5099
パーティ	-11.5099
がちです	-11.5099
笑う	-11.5101
ーっと	-11.5101
相手の気持ち	-11.5103
ふく	-11.5103
責任は	-11.5103
とは思わない	-11.5104
、○○	-11.5104
徹底的に	-11.5105
ワガママ	-11.5105
ところもあります	-11.5105
おまえ	-11.5106
みんなに	-11.5107
どうこう	-11.5107
場に	-11.5107
を作成する	-11.5107
結婚前	-11.5108
ことが出来ません	-11.5108
と聞いた	-11.511
(^-^)	-11.511
下さった	-11.5112
排除	-11.5112
保育士	-11.5113
お母さんは	-11.5114
ノミ	-11.5115
っす	-11.5116
いれる	-11.5116
聞いた話	-11.5116
pack	-11.5117
お尋ね	-11.5118
それが原因	-11.512
映画の	-11.512
というなら	-11.512
なのが	-11.5121
急な	-11.5121
つもりはない	-11.5121
回転数	-11.5122
今の彼	-11.5122
よそ	-11.5122
作られた	-11.5122
∞	-11.5123
房	-11.5125
るのかな	-11.5126
常駐	-11.5126
頑張ってみます	-11.5129
ぶつけて	-11.5129
興味がない	-11.5129
者を	-11.5129
寝室	-11.513
の頃から	-11.5131
そんな人	-11.5131
01.	-11.5132
なことを	-11.5135
自主	-11.5135
▁マ	-11.5136
頑張っている	-11.5136
することができます	-11.5137
婚約者	-11.5137
どうしようか	-11.5137
得意な	-11.5137
チョコレート	-11.5138
しない限り	-11.5138
判り	-11.5139
になりそうな	-11.5139
を立ち上げ	-11.514
問い詰め	-11.5143
360	-11.5143
続いた	-11.5143
呼ばれて	-11.5144
筈	-11.5145
が起き	-11.5146
人も多い	-11.5149
数日後	-11.5149
という質問	-11.515
早急に	-11.515
ガンダム	-11.515
演出	-11.5151
ゆとり	-11.5151
添え	-11.5152
[...]
